<pad>	0
<unk>	0
<s>	0
</s>	0
<mask>	0
<0x00>	0
<0x01>	0
<0x02>	0
<0x03>	0
<0x04>	0
<0x05>	0
<0x06>	0
<0x07>	0
<0x08>	0
<0x09>	0
<0x0A>	0
<0x0B>	0
<0x0C>	0
<0x0D>	0
<0x0E>	0
<0x0F>	0
<0x10>	0
<0x11>	0
<0x12>	0
<0x13>	0
<0x14>	0
<0x15>	0
<0x16>	0
<0x17>	0
<0x18>	0
<0x19>	0
<0x1A>	0
<0x1B>	0
<0x1C>	0
<0x1D>	0
<0x1E>	0
<0x1F>	0
<0x20>	0
<0x21>	0
<0x22>	0
<0x23>	0
<0x24>	0
<0x25>	0
<0x26>	0
<0x27>	0
<0x28>	0
<0x29>	0
<0x2A>	0
<0x2B>	0
<0x2C>	0
<0x2D>	0
<0x2E>	0
<0x2F>	0
<0x30>	0
<0x31>	0
<0x32>	0
<0x33>	0
<0x34>	0
<0x35>	0
<0x36>	0
<0x37>	0
<0x38>	0
<0x39>	0
<0x3A>	0
<0x3B>	0
<0x3C>	0
<0x3D>	0
<0x3E>	0
<0x3F>	0
<0x40>	0
<0x41>	0
<0x42>	0
<0x43>	0
<0x44>	0
<0x45>	0
<0x46>	0
<0x47>	0
<0x48>	0
<0x49>	0
<0x4A>	0
<0x4B>	0
<0x4C>	0
<0x4D>	0
<0x4E>	0
<0x4F>	0
<0x50>	0
<0x51>	0
<0x52>	0
<0x53>	0
<0x54>	0
<0x55>	0
<0x56>	0
<0x57>	0
<0x58>	0
<0x59>	0
<0x5A>	0
<0x5B>	0
<0x5C>	0
<0x5D>	0
<0x5E>	0
<0x5F>	0
<0x60>	0
<0x61>	0
<0x62>	0
<0x63>	0
<0x64>	0
<0x65>	0
<0x66>	0
<0x67>	0
<0x68>	0
<0x69>	0
<0x6A>	0
<0x6B>	0
<0x6C>	0
<0x6D>	0
<0x6E>	0
<0x6F>	0
<0x70>	0
<0x71>	0
<0x72>	0
<0x73>	0
<0x74>	0
<0x75>	0
<0x76>	0
<0x77>	0
<0x78>	0
<0x79>	0
<0x7A>	0
<0x7B>	0
<0x7C>	0
<0x7D>	0
<0x7E>	0
<0x7F>	0
<0x80>	0
<0x81>	0
<0x82>	0
<0x83>	0
<0x84>	0
<0x85>	0
<0x86>	0
<0x87>	0
<0x88>	0
<0x89>	0
<0x8A>	0
<0x8B>	0
<0x8C>	0
<0x8D>	0
<0x8E>	0
<0x8F>	0
<0x90>	0
<0x91>	0
<0x92>	0
<0x93>	0
<0x94>	0
<0x95>	0
<0x96>	0
<0x97>	0
<0x98>	0
<0x99>	0
<0x9A>	0
<0x9B>	0
<0x9C>	0
<0x9D>	0
<0x9E>	0
<0x9F>	0
<0xA0>	0
<0xA1>	0
<0xA2>	0
<0xA3>	0
<0xA4>	0
<0xA5>	0
<0xA6>	0
<0xA7>	0
<0xA8>	0
<0xA9>	0
<0xAA>	0
<0xAB>	0
<0xAC>	0
<0xAD>	0
<0xAE>	0
<0xAF>	0
<0xB0>	0
<0xB1>	0
<0xB2>	0
<0xB3>	0
<0xB4>	0
<0xB5>	0
<0xB6>	0
<0xB7>	0
<0xB8>	0
<0xB9>	0
<0xBA>	0
<0xBB>	0
<0xBC>	0
<0xBD>	0
<0xBE>	0
<0xBF>	0
<0xC0>	0
<0xC1>	0
<0xC2>	0
<0xC3>	0
<0xC4>	0
<0xC5>	0
<0xC6>	0
<0xC7>	0
<0xC8>	0
<0xC9>	0
<0xCA>	0
<0xCB>	0
<0xCC>	0
<0xCD>	0
<0xCE>	0
<0xCF>	0
<0xD0>	0
<0xD1>	0
<0xD2>	0
<0xD3>	0
<0xD4>	0
<0xD5>	0
<0xD6>	0
<0xD7>	0
<0xD8>	0
<0xD9>	0
<0xDA>	0
<0xDB>	0
<0xDC>	0
<0xDD>	0
<0xDE>	0
<0xDF>	0
<0xE0>	0
<0xE1>	0
<0xE2>	0
<0xE3>	0
<0xE4>	0
<0xE5>	0
<0xE6>	0
<0xE7>	0
<0xE8>	0
<0xE9>	0
<0xEA>	0
<0xEB>	0
<0xEC>	0
<0xED>	0
<0xEE>	0
<0xEF>	0
<0xF0>	0
<0xF1>	0
<0xF2>	0
<0xF3>	0
<0xF4>	0
<0xF5>	0
<0xF6>	0
<0xF7>	0
<0xF8>	0
<0xF9>	0
<0xFA>	0
<0xFB>	0
<0xFC>	0
<0xFD>	0
<0xFE>	0
<0xFF>	0
▁	-3.07286
▁the	-3.69425
▁,	-3.82827
s	-4.09488
▁.	-4.16998
▁of	-4.38946
▁and	-4.50884
.	-4.53366
▁to	-4.72979
▁in	-4.73449
▁a	-4.83213
▁(	-4.85583
▁"	-4.94617
)	-5.15017
ed	-5.34508
▁was	-5.35049
@	-5.39924
▁'	-5.48204
▁The	-5.52268
▁==	-5.54402
▁@-	-5.56685
▁|	-5.69818
ศ	-5.70779
ที่	-5.72843
ing	-5.77556
▁for	-5.77807
▁on	-5.77837
▁that	-5.81269
▁as	-5.84897
ของ	-5.85412
▁with	-5.87376
▁และ	-5.87462
,	-5.91087
▁by	-5.9238
และ	-5.94946
▁is	-6.08495
▁)	-6.08814
ใน	-6.16009
ly	-6.19849
▁from	-6.24621
▁his	-6.25498
▁พ	-6.26844
▁at	-6.27718
▁||	-6.2925
"	-6.31985
e	-6.39968
▁were	-6.46268
-	-6.46366
:	-6.49088
d	-6.51604
▁it	-6.52751
▁he	-6.52801
เป็น	-6.53118
▁===	-6.53933
▁1	-6.5586
▁In	-6.57132
ได้	-6.5728
▁an	-6.58284
▁|-	-6.64296
▁2	-6.64571
▁had	-6.65323
▁which	-6.71516
▁A	-6.72499
▁–	-6.78991
▁be	-6.79557
y	-6.80333
▁3	-6.83752
er	-6.90488
▁:	-6.92767
="	-6.93061
จาก	-6.9583
t	-6.98795
▁ค	-6.99263
การ	-6.99585
▁but	-7.0039
▁-	-7.00848
▁not	-7.00884
▁are	-7.01656
มี	-7.01668
▁5	-7.04967
มา	-7.05572
ส	-7.0726
▁เป็น	-7.07603
▁;	-7.07699
▁โดย	-7.08594
▁first	-7.08596
▁4	-7.09747
▁their	-7.10642
/	-7.10914
ให้	-7.11027
▁her	-7.13093
th	-7.13367
▁also	-7.14265
ว่า	-7.15174
กับ	-7.15698
▁ๆ	-7.15747
▁or	-7.18083
▁I	-7.19806
▁its	-7.20174
▁He	-7.20432
▁one	-7.22394
▁have	-7.23237
es	-7.23239
▁two	-7.27896
▁who	-7.28228
ไป	-7.28305
▁@.	-7.28436
a	-7.28801
▁has	-7.30652
n	-7.30713
▁ซึ่ง	-7.30835
▁been	-7.31132
;	-7.31943
▁@,@	-7.33706
▁6	-7.34967
▁this	-7.34971
▁หรือ	-7.35333
ค	-7.35498
▁=	-7.37194
▁*	-7.37553
o	-7.38051
ก	-7.40068
al	-7.41079
โดย	-7.41878
นี้	-7.44042
▁time	-7.44638
▁after	-7.45066
น	-7.45436
▁they	-7.47039
i	-7.47912
▁would	-7.48613
▁It	-7.49733
▁7	-7.50576
ด้วย	-7.50761
▁into	-7.51579
นั้น	-7.51753
ม	-7.52091
align	-7.52512
▁8	-7.53141
จะ	-7.53177
center	-7.5356
==	-7.5357
=	-7.55129
▁S	-7.55317
ด	-7.55417
▁over	-7.55549
หรือ	-7.55786
▁มี	-7.56175
E	-7.56948
▁แต่	-7.58092
▁other	-7.58205
ต	-7.59073
▁ใน	-7.61079
▁10	-7.61628
▁more	-7.63181
|	-7.65394
▁!	-7.66104
r	-7.67522
▁out	-7.692
▁she	-7.6925
ตัว	-7.69724
▁all	-7.69741
▁when	-7.70009
"|	-7.70961
▁up	-7.71168
เมือง	-7.71764
▁ปี	-7.72286
▁him	-7.72906
แห่ง	-7.73739
m	-7.73999
พ	-7.74402
▁9	-7.7502
ทาง	-7.75302
▁during	-7.76509
9	-7.76664
||	-7.76828
in	-7.77416
แล้ว	-7.77983
▁15	-7.78374
▁most	-7.78642
▁อ้างอิง	-7.79295
นา	-7.80172
เพื่อ	-7.80605
▁only	-7.80633
แบบ	-7.81398
▁game	-7.81422
▁than	-7.82012
▁about	-7.82257
▁16	-7.82719
▁โอ	-7.83799
▁B	-7.83932
▁17	-7.84107
ท	-7.84252
f	-7.84703
ไทย	-7.84947
▁between	-7.85109
S	-7.85144
ย	-7.85551
คือ	-7.85861
▁later	-7.8612
▁three	-7.86564
ต่อ	-7.86656
▁D	-7.86827
กัน	-7.87085
▁20	-7.8726
▁new	-7.87323
▁คน	-7.88031
▁/	-7.88098
▁On	-7.88213
us	-7.88232
▁C	-7.88791
c	-7.89497
▁align	-7.8988
▁12	-7.89972
▁while	-7.90808
x	-7.91479
ป	-7.91641
▁18	-7.92039
▁ที่	-7.92088
en	-7.92281
อยู่	-7.92327
ว	-7.9268
ล	-7.92939
k	-7.936
▁New	-7.94159
▁film	-7.94318
บ	-7.94533
ก็	-7.9467
▁คือ	-7.94982
พระ	-7.9519
ขึ้น	-7.95857
รา	-7.96075
ion	-7.96406
ถึง	-7.96723
man	-7.96876
▁made	-7.97716
▁style	-7.9802
▁0	-7.98615
▁where	-7.99677
ร	-8.00376
▁season	-8.00669
▁000	-8.00682
ง	-8.00746
ส์	-8.00926
st	-8.01136
▁P	-8.01156
ในปี	-8.01396
ic	-8.01416
▁such	-8.01492
▁some	-8.01693
▁before	-8.02895
▁year	-8.03104
ตาม	-8.03313
2	-8.03459
▁11	-8.03765
ผู้	-8.03808
ers	-8.03899
ความ	-8.03944
▁M	-8.0407
▁การ	-8.04286
ไม่	-8.04675
▁This	-8.04812
▁—	-8.05307
ใหม่	-8.05547
น้ำ	-8.06015
เพนออฟฟิศดอตอ็อก	-8.06182
▁re	-8.06315
▁no	-8.06397
▁14	-8.07264
▁เมื่อ	-8.07412
▁de	-8.07456
ดี	-8.07496
b	-8.07569
left	-8.07629
เมื่อ	-8.07757
l	-8.08124
▁====	-8.08317
▁used	-8.0921
▁under	-8.09591
▁years	-8.09713
▁13	-8.10096
▁G	-8.10263
on	-8.10301
ซึ่ง	-8.10462
▁second	-8.10689
▁being	-8.10871
คน	-8.11002
▁24	-8.11347
▁them	-8.11541
ช	-8.12702
▁through	-8.13272
▁E	-8.13358
▁number	-8.13925
▁against	-8.14272
▁can	-8.1453
อย่าง	-8.14794
▁F	-8.152
ถูก	-8.15213
ตา	-8.15236
ยา	-8.15765
เ	-8.15836
▁U	-8.15838
▁album	-8.15954
===	-8.16204
▁part	-8.16409
เกิด	-8.16607
▁song	-8.16679
▁became	-8.17985
▁then	-8.1807
▁United	-8.1853
or	-8.18533
▁including	-8.18763
▁T	-8.19579
an	-8.19915
▁After	-8.19986
อ	-8.20825
ลา	-8.20912
▁series	-8.20959
▁both	-8.20964
▁well	-8.21165
▁there	-8.21187
หนึ่ง	-8.21693
ใช้	-8.21898
▁so	-8.22041
เข้า	-8.22385
▁R	-8.22401
เขา	-8.24428
▁30	-8.24555
ปี	-8.24939
A	-8.24992
▁K	-8.25021
▁team	-8.25229
p	-8.26893
ที่มี	-8.26945
(	-8.27069
▁four	-8.27134
▁As	-8.2722
B	-8.27332
▁American	-8.27495
▁episode	-8.2809
▁23	-8.28174
re	-8.28549
ต่าง	-8.2881
กา	-8.29118
▁bgcolor	-8.29273
▁She	-8.29643
ar	-8.29842
อา	-8.29844
ระหว่าง	-8.30327
จึง	-8.30352
▁วัด	-8.30353
▁work	-8.30371
▁said	-8.30781
F	-8.30861
▁many	-8.30897
u	-8.31159
ซี	-8.3124
le	-8.31448
▁เช่น	-8.31586
▁19	-8.32342
▁several	-8.32555
▁[	-8.3286
▁m	-8.3353
▁25	-8.33642
▁O	-8.34013
ทั้ง	-8.34018
▁known	-8.34269
ta	-8.34347
▁could	-8.34618
▁did	-8.35049
เอ	-8.35218
โอ	-8.35243
▁ได้	-8.35512
▁ในปี	-8.35609
▁World	-8.36051
ทำ	-8.36177
px	-8.36758
'	-8.36826
g	-8.37134
▁began	-8.3732
เรื่อง	-8.37521
▁un	-8.3777
▁L	-8.378
สำหรับ	-8.37985
▁21	-8.38043
ฟ	-8.38053
▁N	-8.38263
เพลง	-8.38311
3	-8.38478
ไว้	-8.38648
รี	-8.38956
ลง	-8.39255
▁At	-8.39351
ชื่อ	-8.39351
ton	-8.39651
ร์	-8.39686
มาก	-8.39847
▁day	-8.39949
ia	-8.4001
▁&	-8.40646
อื่น	-8.40667
วัด	-8.40843
▁early	-8.41025
▁end	-8.41144
7	-8.41195
▁released	-8.4144
▁until	-8.41561
1	-8.41818
▁called	-8.41898
C	-8.42424
ใหญ่	-8.4278
▁จาก	-8.42908
▁like	-8.4315
z	-8.43193
h	-8.43337
อีก	-8.43645
▁ซึ่งเป็น	-8.43668
า	-8.43899
▁million	-8.44182
▁back	-8.44328
ะ	-8.44476
งาน	-8.44895
ในการ	-8.44962
able	-8.45051
ation	-8.45056
▁100	-8.45087
ทรง	-8.45207
ซา	-8.45607
▁British	-8.45994
▁found	-8.46116
เรียกว่า	-8.46357
▁$	-8.46617
สอง	-8.46735
คำ	-8.46962
วัน	-8.47387
กลุ่ม	-8.47421
▁W	-8.47645
ออก	-8.47765
ทั้งหมด	-8.47914
ห	-8.48605
▁22	-8.49372
▁these	-8.49784
สามารถ	-8.5004
▁people	-8.50417
▁แหล่งข้อมูลอื่น	-8.50452
▁ทำให้	-8.50462
ใจ	-8.50641
▁May	-8.50669
▁States	-8.50892
▁September	-8.5112
ริ	-8.51142
รับ	-8.51143
▁War	-8.51661
4	-8.51973
โก	-8.52071
▁music	-8.52367
6	-8.52557
ch	-8.52725
8	-8.52769
▁same	-8.5316
มิ	-8.53173
▁John	-8.53236
▁large	-8.5327
▁long	-8.53485
▁August	-8.53576
▁ตำบล	-8.53825
บน	-8.54204
▁may	-8.54242
▁because	-8.54328
ยัง	-8.54756
▁use	-8.54768
ne	-8.55125
▁around	-8.56152
หลัง	-8.56344
สร้าง	-8.56349
โต	-8.56388
▁any	-8.56458
▁ณ	-8.5668
▁km	-8.56869
หน้า	-8.5703
ต้อง	-8.57045
คา	-8.5728
0	-8.57295
ซ	-8.57522
▁H	-8.57595
นำ	-8.57644
▁took	-8.57784
▁ส่วน	-8.58174
ดา	-8.58241
▁off	-8.58281
ประมาณ	-8.58665
▁state	-8.59016
▁following	-8.59086
”	-8.59231
▁Re	-8.59255
โร	-8.59313
5	-8.59581
▁However	-8.59625
it	-8.59691
ทหาร	-8.59797
um	-8.59882
▁October	-8.59987
ชาว	-8.60185
นี	-8.60285
▁show	-8.60457
▁received	-8.60596
บ้าน	-8.60693
โลก	-8.60697
ity	-8.61155
ro	-8.6123
โน	-8.61319
▁along	-8.61411
▁US	-8.61442
▁อำเภอ	-8.61629
สี	-8.61839
D	-8.62082
P	-8.62174
▁St	-8.62287
▁York	-8.62604
▁No	-8.62617
รัก	-8.6273
▁war	-8.62753
วา	-8.62803
▁V	-8.62976
▁each	-8.63043
▁นาย	-8.63075
▁area	-8.63151
ian	-8.63578
▁five	-8.63609
▁down	-8.63715
▁2010	-8.63809
▁high	-8.63932
กลาง	-8.64711
▁ได้แก่	-8.64937
▁June	-8.65178
▁“	-8.6533
▁century	-8.65714
▁...	-8.65752
▁เพื่อ	-8.65894
ent	-8.66107
ต์	-8.66222
em	-8.66306
ประเทศ	-8.66512
สงคราม	-8.66747
▁city	-8.66788
▁They	-8.66803
▁single	-8.66925
วง	-8.66976
▁]	-8.67191
na	-8.67211
▁July	-8.67268
T	-8.67404
▁final	-8.67669
เม	-8.67699
▁%	-8.67699
อัน	-8.67858
▁November	-8.67976
ลิ	-8.68042
el	-8.68274
▁เขา	-8.68533
background	-8.68626
▁March	-8.68656
▁since	-8.68684
ราช	-8.68823
▁set	-8.68899
▁main	-8.68977
▁April	-8.69456
ด้าน	-8.69672
▁J	-8.69745
▁Dur	-8.69926
ive	-8.69962
▁result	-8.70259
ist	-8.70292
▁will	-8.70418
▁|}	-8.70471
ra	-8.70519
▁2008	-8.70566
H	-8.71301
–	-8.71416
),	-8.71683
ลี	-8.71768
▁last	-8.71908
▁due	-8.71955
อยู่ใน	-8.72356
ธรรม	-8.72522
เซ	-8.7253
il	-8.72575
ติ	-8.72584
ทอง	-8.72738
son	-8.72741
▁2009	-8.7288
เมื่อวันที่	-8.72908
K	-8.73047
="#	-8.73086
ภาพ	-8.73165
▁line	-8.73196
่	-8.73324
▁2011	-8.73743
▁North	-8.74018
▁group	-8.74095
เจ้า	-8.74149
is	-8.74262
▁government	-8.74275
ry	-8.74426
ทำให้	-8.74442
ter	-8.74451
ดู	-8.74491
▁name	-8.7455
ตั้งแต่	-8.74611
อ้างอิง	-8.74928
แต่	-8.75059
เรือ	-8.75174
co	-8.75425
▁2012	-8.75557
▁December	-8.75595
ที่จะ	-8.75676
▁system	-8.75958
nbsp	-8.75966
▁left	-8.76232
กะ	-8.76257
สาย	-8.76322
▁จึง	-8.76359
▁record	-8.76384
ระบบ	-8.76412
▁character	-8.76521
▁place	-8.76574
▁home	-8.76625
▁third	-8.7699
ine	-8.77065
▁26	-8.77236
▁2007	-8.77247
อาร์คอน	-8.77306
ผล	-8.77322
เงิน	-8.77504
หลัก	-8.77647
▁January	-8.77756
▁South	-8.77789
▁much	-8.77884
▁if	-8.78023
สาม	-8.78097
ได้รับ	-8.78187
จีน	-8.78223
▁another	-8.78255
จน	-8.78363
te	-8.78376
ธ	-8.78387
มาจาก	-8.78454
G	-8.78543
▁28	-8.78659
▁played	-8.78717
▁27	-8.78732
▁life	-8.78764
▁what	-8.78819
▁based	-8.78844
▁included	-8.78851
จ	-8.7897
ทีม	-8.79107
รวม	-8.79138
▁When	-8.79374
▁do	-8.79384
บา	-8.79504
▁p	-8.79525
ma	-8.79874
▁band	-8.79981
▁near	-8.80123
ผ่าน	-8.80189
▁For	-8.80364
▁wrote	-8.80457
ชัย	-8.80652
หลาย	-8.80836
▁By	-8.80974
at	-8.80985
▁own	-8.81181
▁มีนาคม	-8.81257
โรงเรียน	-8.81326
มหาวิทยาลัย	-8.81508
▁won	-8.81545
▁National	-8.81949
นาย	-8.82538
จิ	-8.82573
กว่า	-8.8287
แสดง	-8.8298
เขต	-8.83348
ระ	-8.83378
แก่	-8.83428
ส่ง	-8.83435
▁attack	-8.83499
▁ตุลาคม	-8.83503
▁just	-8.83591
▁กันยายน	-8.83789
เสียง	-8.84114
เธอ	-8.84255
ant	-8.84328
ญี่ปุ่น	-8.84717
▁previous	-8.84807
w	-8.84901
เร	-8.84925
▁described	-8.84945
▁โรงเรียน	-8.85318
ism	-8.85349
โล	-8.85395
ley	-8.85568
สูง	-8.85653
▁world	-8.85674
▁family	-8.85679
▁ธันวาคม	-8.85735
▁สิงหาคม	-8.8591
ชิ	-8.86048
▁ship	-8.86137
เริ่ม	-8.86221
id	-8.86235
▁include	-8.86273
W	-8.86291
▁now	-8.86372
ของเขา	-8.86571
▁named	-8.86575
ปัจจุบัน	-8.86608
พระองค์	-8.86648
เกี่ยวกับ	-8.86654
et	-8.8668
▁led	-8.86933
▁29	-8.86941
▁make	-8.87067
▁German	-8.87239
▁video	-8.87308
โค	-8.87324
▁six	-8.87348
▁To	-8.87478
land	-8.87497
▁เมษายน	-8.87501
จำนวน	-8.87512
▁2006	-8.87692
▁University	-8.87728
กลายเป็น	-8.87765
▁La	-8.88015
M	-8.88027
โด	-8.8815
วิ	-8.88234
เล	-8.8824
▁De	-8.88455
▁ของ	-8.88481
ไม่ได้	-8.88535
▁best	-8.88839
บาง	-8.89124
▁2013	-8.89296
▁men	-8.89403
▁ให้	-8.89473
กำลัง	-8.8964
ก่อน	-8.89759
▁very	-8.89837
ตั้ง	-8.89928
▁His	-8.89932
ดังกล่าว	-8.89954
those	-8.90022
▁ปัจจุบัน	-8.90033
▁February	-8.90044
▁next	-8.90341
▁support	-8.90454
การศึกษา	-8.9067
age	-8.90731
▁small	-8.90882
▁still	-8.90912
เสีย	-8.90918
น้อย	-8.90988
▁All	-8.91023
ศรี	-8.91163
ฝ่าย	-8.9117
▁north	-8.91265
มัน	-8.91384
ri	-8.9139
▁กับ	-8.9145
เรียก	-8.91453
▁original	-8.91491
กิ	-8.91699
เดิม	-8.91755
ที	-8.91847
N	-8.91997
เหนือ	-8.92049
est	-8.92073
▁species	-8.92085
แรก	-8.92091
เครื่อง	-8.92128
▁match	-8.92137
▁พฤษภาคม	-8.92255
▁play	-8.92265
▁กรกฎาคม	-8.92409
ช่อง	-8.92434
▁อ	-8.92467
โม	-8.92514
▁side	-8.92637
▁major	-8.92709
▁per	-8.92738
ตะ	-8.92787
to	-8.93
▁French	-8.93134
▁พระ	-8.93211
▁50	-8.93393
▁top	-8.93532
▁death	-8.93996
▁2014	-8.94247
ชั้น	-8.94433
จังหวัด	-8.94496
▁late	-8.94578
▁power	-8.9469
▁มกราคม	-8.94791
▁built	-8.94849
หา	-8.94896
ๆ	-8.94928
▁games	-8.94943
ลูก	-8.94993
▁within	-8.95016
▁held	-8.95017
da	-8.95084
ve	-8.95196
▁public	-8.95228
▁ต่อมา	-8.95348
ระดับ	-8.95468
▁former	-8.95626
เวลา	-8.95632
เน	-8.95678
หัว	-8.95773
▁รับบท	-8.95784
▁role	-8.95816
▁water	-8.95958
▁พฤศจิกายน	-8.96022
▁ส	-8.9606
▁{|	-8.96218
▁although	-8.96219
เอา	-8.96306
นิ	-8.96487
ภาษา	-8.96577
▁King	-8.96594
▁An	-8.96621
▁release	-8.96837
ie	-8.96856
▁again	-8.96898
▁There	-8.969
ตี	-8.97056
 	-8.97215
▁Me	-8.97283
▁มิถุนายน	-8.97301
ครั้งแรก	-8.97378
แม่	-8.97428
▁you	-8.97531
การแข่งขัน	-8.97741
▁storm	-8.97788
V	-8.97894
พิเศษ	-8.97954
▁West	-8.98023
ตำแหน่ง	-8.98317
▁Al	-8.98638
ชาย	-8.98728
▁One	-8.98959
ment	-8.99057
▁we	-8.99112
หญิง	-8.9912
ul	-8.99131
บี	-8.99491
▁โดยมี	-8.99544
▁II	-8.99586
▁school	-8.99622
ชีวิต	-8.99628
อิ	-8.99689
▁width	-8.99838
▁local	-8.99872
▁however	-9.0007
de	-9.0023
มากกว่า	-9.00272
พื้นที่	-9.00454
ทุก	-9.00691
▁way	-9.00802
ti	-9.00862
▁มหาวิทยาลัย	-9.00937
▁40	-9.00961
เด	-9.00962
▁Man	-9.00998
ary	-9.01089
▁even	-9.01226
▁few	-9.01239
▁days	-9.01262
▁book	-9.01862
nd	-9.01915
▁31	-9.01956
▁south	-9.01976
ling	-9.01999
เขียน	-9.02093
ir	-9.0217
▁City	-9.02192
▁came	-9.02218
▁English	-9.02461
com	-9.02465
ประจำ	-9.02465
▁continued	-9.02465
์	-9.02626
▁production	-9.02691
ส่วน	-9.02782
▁often	-9.02884
พา	-9.03068
▁London	-9.03182
▁วันที่	-9.03202
อังกฤษ	-9.03238
▁similar	-9.0325
กษัตริย์	-9.03472
▁England	-9.03563
style	-9.03567
▁เพราะ	-9.03623
espite	-9.03651
วี	-9.03652
รัฐ	-9.03851
▁take	-9.03867
▁period	-9.03933
▁members	-9.03946
▁story	-9.03999
▁2005	-9.04227
▁form	-9.04252
▁กุมภาพันธ์	-9.04258
▁different	-9.04505
I	-9.04521
อี	-9.0471
เห็น	-9.04776
ข้อมูล	-9.04814
รายการ	-9.04894
รูป	-9.0514
▁X	-9.05143
▁#	-9.05242
ba	-9.05297
▁Le	-9.05309
▁version	-9.05448
▁further	-9.05468
▁half	-9.05687
▁co	-9.05767
แห่งชาติ	-9.05865
▁แล้ว	-9.05938
▁Co	-9.06183
▁River	-9.0635
มือ	-9.06445
ous	-9.06465
me	-9.06634
สุ	-9.06717
▁considered	-9.06876
&	-9.0691
L	-9.06932
ย์	-9.07033
▁ผู้	-9.07036
สัน	-9.07091
ภายใน	-9.07116
having	-9.07384
ภาพยนตร์	-9.07446
▁total	-9.07703
▁นอกจากนี้	-9.07726
▁point	-9.07874
โซ	-9.07997
ไม่มี	-9.08023
ป่า	-9.08041
be	-9.08074
มะ	-9.08331
ไฟ	-9.08546
ให้กับ	-9.08563
▁short	-9.08886
▁rowspan	-9.08989
▁become	-9.09057
▁position	-9.09127
▁player	-9.09231
▁without	-9.09333
▁ประเทศ	-9.09403
lthough	-9.09495
ate	-9.09538
▁moved	-9.09757
ur	-9.09774
ไม้	-9.09847
บอก	-9.09851
ใต้	-9.0999
นัก	-9.09991
ต้น	-9.10148
ol	-9.10583
▁ไฟล์	-9.10734
top	-9.10741
den	-9.10843
▁เพลง	-9.10979
อาจ	-9.1109
▁เมตร	-9.11115
▁class	-9.1127
▁2015	-9.11299
พัฒนา	-9.11682
▁among	-9.11746
====	-9.11847
▁order	-9.11913
▁lead	-9.11925
ร่วม	-9.11978
▁increase	-9.11999
เกาะ	-9.12448
เพียง	-9.12531
แทน	-9.12581
หลวง	-9.12813
▁f	-9.13039
รูปแบบ	-9.13097
men	-9.13146
พล	-9.13151
กลับ	-9.13272
▁control	-9.13274
▁written	-9.13421
เกม	-9.13532
ในวันที่	-9.13542
ที่เป็น	-9.13746
ge	-9.13789
คณะ	-9.13793
▁track	-9.141
▁ก	-9.1417
ต่างๆ	-9.14228
▁จังหวัด	-9.14287
อำเภอ	-9.14359
no	-9.14392
รถ	-9.14441
os	-9.14457
▁ประวัติ	-9.14458
▁though	-9.14469
ชุด	-9.14516
ละ	-9.14642
▁ภาพยนตร์	-9.14705
ปา	-9.14752
ตำบล	-9.14819
ได้รับการ	-9.14929
ยู	-9.14967
ศึกษา	-9.15044
ก็ได้	-9.15156
ท่าน	-9.15186
R	-9.15198
▁ก็	-9.15201
โท	-9.15223
é	-9.15249
am	-9.15348
ใด	-9.15401
เข้ามา	-9.15419
ทา	-9.15434
▁เนื่องจาก	-9.1546
10	-9.1548
เด็ก	-9.15567
▁fire	-9.15609
กำหนด	-9.15764
▁given	-9.15784
ty	-9.15838
ซิ	-9.15867
ค่า	-9.15881
rowspan	-9.1616
▁old	-9.16577
เก	-9.16587
▁h	-9.16674
▁gave	-9.16778
▁Con	-9.1704
v	-9.17045
เปน	-9.17101
▁2004	-9.17226
รอบ	-9.17275
อาหาร	-9.17424
ce	-9.17501
จัด	-9.17513
▁While	-9.17531
ad	-9.17652
แยก	-9.17671
เค	-9.18025
▁published	-9.1803
▁อา	-9.18222
มหา	-9.18337
แนว	-9.1836
▁returned	-9.18388
20	-9.18391
ฝรั่งเศส	-9.18405
เต	-9.18458
พระเจ้า	-9.18477
้	-9.18599
▁town	-9.18647
▁company	-9.18798
วัง	-9.18802
=2|	-9.18818
เลย	-9.1884
ang	-9.19094
▁Z	-9.19132
▁ถึง	-9.1914
▁(19	-9.19226
j	-9.19246
รุ	-9.19266
เพราะ	-9.19273
▁We	-9.19313
ภาค	-9.19385
▁initial	-9.19408
เบ	-9.19476
▁มา	-9.19491
▁east	-9.19552
▁went	-9.19592
นาง	-9.19597
สา	-9.19608
:#	-9.19623
ท่า	-9.19624
ออกมา	-9.19684
บริษัท	-9.19765
la	-9.19825
▁เมื่อวันที่	-9.19864
bgcolor	-9.19892
▁produced	-9.20057
▁common	-9.20251
เท่านั้น	-9.2045
▁State	-9.20616
ฯ	-9.20634
tic	-9.20694
▁reported	-9.20708
▁lost	-9.2077
▁stated	-9.21317
▁building	-9.21501
▁service	-9.21609
ใบ	-9.21792
▁Park	-9.21943
▁career	-9.21945
un	-9.22067
▁border	-9.22112
ard	-9.22112
มีความ	-9.22141
เปิด	-9.22157
ณ	-9.2233
ข	-9.22331
▁According	-9.22364
ness	-9.22431
สภาผู้แทนราษฎร	-9.22457
▁General	-9.22516
▁head	-9.22572
มนุษย์	-9.2266
เล่น	-9.22696
▁James	-9.22758
ชา	-9.22845
▁William	-9.22864
▁country	-9.23055
▁using	-9.2325
▁ก่อนคริสตกาล	-9.23257
▁man	-9.23332
▁เอ	-9.23349
▁west	-9.23353
ไปยัง	-9.2339
der	-9.23516
▁development	-9.23598
▁Be	-9.23662
แมน	-9.2369
▁run	-9.23773
▁never	-9.23983
▁close	-9.23998
ies	-9.24026
ปลา	-9.24095
ish	-9.24203
]	-9.24241
▁caus	-9.24256
จะมี	-9.24265
▁2000	-9.2428
▁history	-9.24286
text	-9.24322
▁right	-9.2443
อันดับ	-9.24457
พวก	-9.24518
ขอ	-9.24634
▁Australia	-9.24719
▁strong	-9.24808
▁father	-9.24922
▁League	-9.25028
▁These	-9.25087
▁making	-9.25089
มากขึ้น	-9.2522
ญ	-9.25274
วันที่	-9.25583
▁aircraft	-9.2562
O	-9.25714
▁himself	-9.25756
▁club	-9.25787
กระ	-9.25789
ชาติ	-9.25791
▁forces	-9.2582
li	-9.25845
ยาว	-9.25873
▁ten	-9.25892
บริเวณ	-9.25916
แก้ว	-9.25937
ga	-9.25962
ออกจาก	-9.26024
▁America	-9.26068
▁me	-9.26097
as	-9.26242
▁military	-9.26251
เฉพาะ	-9.26321
▁&#	-9.26355
▁ships	-9.26534
สาร	-9.26754
J	-9.26795
ha	-9.26985
กิน	-9.27134
right	-9.27186
▁จะ	-9.27287
▁Division	-9.27334
25	-9.27576
do	-9.2759
▁Na	-9.27651
รัฐบาล	-9.27688
▁times	-9.2769
เตอร์	-9.27791
▁Street	-9.27864
▁Army	-9.27884
อีกครั้ง	-9.27893
▁force	-9.27959
แสง	-9.27967
;"|	-9.28027
ner	-9.28053
▁สมาชิก	-9.28267
ll	-9.28317
▁air	-9.28399
▁เมือง	-9.28452
▁tour	-9.28462
▁title	-9.28518
เรา	-9.28542
▁pre	-9.28615
▁week	-9.28627
เล็ก	-9.28654
ไอ	-9.28745
se	-9.28801
จากการ	-9.28844
นคร	-9.28857
ff	-9.28944
▁command	-9.29046
วงศ์	-9.2921
กู	-9.2921
▁2003	-9.29324
▁performance	-9.29441
less	-9.29541
ตน	-9.29598
▁good	-9.29691
สำคัญ	-9.29706
▁light	-9.29755
▁how	-9.29835
ซู	-9.29947
ผลิต	-9.30123
▁กลุ่ม	-9.30235
▁less	-9.30284
▁c	-9.30335
▁แห่ง	-9.3048
ium	-9.30493
สปาร์ตา	-9.30574
▁Royal	-9.30595
▁อดีต	-9.30621
▁d	-9.30676
▁You	-9.30761
▁Star	-9.30815
▁200	-9.30882
เดียว	-9.30935
▁national	-9.30956
▁George	-9.30967
ถนน	-9.30981
width	-9.31118
ช่วง	-9.31163
▁black	-9.31236
▁ดูเพิ่ม	-9.3126
▁ช่อง	-9.31391
▁Pro	-9.3151
▁land	-9.31593
ขนาดใหญ่	-9.31613
กร	-9.317
เรียน	-9.31751
▁died	-9.31913
▁East	-9.31914
▁developed	-9.32006
แดง	-9.32149
▁colspan	-9.32197
ตัน	-9.32247
▁political	-9.3233
▁Mar	-9.32355
▁Best	-9.32364
นอก	-9.32439
▁months	-9.3244
▁return	-9.32463
▁songs	-9.32478
▁Road	-9.32537
จุด	-9.32611
▁children	-9.32675
19	-9.32836
ในประเทศไทย	-9.32987
นะ	-9.33006
▁house	-9.33018
ชาวไทย	-9.33034
กองทัพ	-9.33112
▁design	-9.33257
คุณ	-9.33283
ดิ	-9.333
▁Japanese	-9.3339
▁Her	-9.33485
▁สำหรับ	-9.33517
mo	-9.33619
ยก	-9.3368
▁range	-9.33713
▁across	-9.33769
ทั่วไป	-9.33855
คู่	-9.33917
im	-9.33949
▁present	-9.33989
▁sent	-9.3405
▁win	-9.34135
▁With	-9.34148
การแสดง	-9.34163
▁campaign	-9.34373
ตาย	-9.34382
▁characters	-9.34398
หิน	-9.34406
ut	-9.34527
remained	-9.34561
ham	-9.34566
สมาชิก	-9.34593
way	-9.34599
▁ft	-9.34606
ประ	-9.34618
วิทยา	-9.34735
กุ	-9.3477
▁รับบทเป็น	-9.349
รักษา	-9.34928
▁eight	-9.34946
เมสซีเนีย	-9.34962
ประเภท	-9.35076
ที่ใช้	-9.35171
▁El	-9.35207
▁felt	-9.3524
▁away	-9.35336
ช่วย	-9.35477
ดาว	-9.35517
จริง	-9.35671
กุล	-9.35873
อาคาร	-9.35878
▁House	-9.3588
po	-9.3592
ฮา	-9.35937
เดียวกัน	-9.3602
▁writing	-9.36078
โซลอน	-9.36079
▁1.	-9.36111
▁announced	-9.36127
▁\	-9.3616
▁San	-9.36195
served	-9.36327
▁reached	-9.36392
ni	-9.36409
▁television	-9.36443
▁great	-9.36467
▁David	-9.36483
ac	-9.365
▁500	-9.36523
▁Championship	-9.36582
▁Air	-9.36633
ทั้งสอง	-9.36669
▁seven	-9.36721
▁created	-9.36755
กฎหมาย	-9.36836
▁2016	-9.37002
▁low	-9.37007
▁should	-9.37017
sa	-9.37025
▁Robert	-9.37207
พี	-9.37406
เสียชีวิต	-9.3743
▁My	-9.37515
▁station	-9.37641
ance	-9.37652
ประชาชน	-9.377
หนังสือ	-9.37939
min	-9.37958
▁ก่อนคริสต์กาล	-9.37968
▁various	-9.3797
▁Michael	-9.38015
▁level	-9.38026
เพิ่ม	-9.38169
▁วัน	-9.38286
พลัง	-9.38317
▁thought	-9.38323
กลับมา	-9.38431
11	-9.38558
▁full	-9.38586
จี	-9.38654
▁seen	-9.38706
▁Ra	-9.38714
ท์	-9.38776
ลู	-9.38826
;"	-9.38898
!	-9.3894
ทะเล	-9.39056
เทพ	-9.39056
▁followed	-9.3906
▁County	-9.39264
▁score	-9.39373
สูงสุด	-9.39468
recorded	-9.39505
▁general	-9.39529
▁เขต	-9.39588
▁performed	-9.39593
jpg	-9.39609
▁success	-9.39618
by	-9.39654
ina	-9.39655
▁’	-9.39675
ke	-9.3979
▁สปาร์ตา	-9.39898
ฐาน	-9.39924
นก	-9.39988
▁white	-9.40138
▁บุคคลจาก	-9.40321
▁School	-9.40454
▁ไลเคอร์กัส	-9.40516
▁road	-9.40554
bo	-9.4058
▁open	-9.40615
▁2001	-9.4063
▁บริษัท	-9.40638
▁Ca	-9.4069
เอง	-9.40691
▁areas	-9.40697
ส่วนใหญ่	-9.40792
▁race	-9.40808
▁route	-9.40832
รุ่น	-9.40905
องค์	-9.40938
▁noted	-9.4105
▁2002	-9.4111
ที่สุด	-9.41126
lo	-9.41154
อยู่ที่	-9.41251
▁son	-9.41451
สังคม	-9.41575
go	-9.41654
ah	-9.41781
▁battle	-9.4179
▁night	-9.41798
▁car	-9.41817
ซ์	-9.41827
▁site	-9.41925
▁addition	-9.41961
▁France	-9.41964
▁non	-9.42003
▁players	-9.42115
▁Australian	-9.42132
พิ	-9.42151
▁International	-9.42156
▁killed	-9.42205
อำนาจ	-9.42251
ห์	-9.42315
โรค	-9.42323
ในช่วง	-9.42401
▁throughout	-9.425
▁หลังจาก	-9.42633
▁front	-9.4266
▁Sa	-9.42715
▁taken	-9.42746
ka	-9.42819
▁little	-9.42925
▁complete	-9.43049
▁น	-9.43073
การใช้	-9.43078
ติด	-9.4308
พบ	-9.43153
▁member	-9.43172
▁Go	-9.43178
sh	-9.43196
น่า	-9.43284
▁free	-9.43302
น์	-9.4332
▁debut	-9.43412
จะต้อง	-9.43453
▁tropical	-9.43459
▁Do	-9.43542
▁significant	-9.43549
คุ	-9.43587
▁mi	-9.43647
▁รางวัล	-9.43737
นิยม	-9.43747
กีฬา	-9.43825
ปาก	-9.43953
▁post	-9.44056
ประกาศ	-9.44092
▁peak	-9.44181
▁help	-9.44216
ิ	-9.44331
เหมือน	-9.44342
อก	-9.44374
▁go	-9.44426
ot	-9.44432
พร	-9.44441
▁sea	-9.44483
▁established	-9.44498
▁con	-9.4455
ราย	-9.44585
▁age	-9.44701
▁So	-9.44723
ตรา	-9.44724
เอก	-9.44901
▁80	-9.44914
di	-9.44969
▁young	-9.45019
คืน	-9.45063
▁appeared	-9.45131
80	-9.45154
▁too	-9.45254
คอ	-9.45303
ยุค	-9.4539
▁Black	-9.45441
▁women	-9.45494
▁body	-9.45495
เหล่านี้	-9.45572
▁Love	-9.45599
▁mm	-9.45717
▁Music	-9.45823
คลอง	-9.45926
▁miles	-9.45927
_	-9.45973
12	-9.46016
มีการ	-9.46069
▁mid	-9.46079
▁Mo	-9.46119
สัตว์	-9.46156
ial	-9.46177
▁my	-9.46222
▁law	-9.46323
ler	-9.46489
รู	-9.46497
เจ	-9.46557
▁Ka	-9.46644
ข้าง	-9.46684
ng	-9.46759
เป็นผู้	-9.46766
ci	-9.46827
▁decided	-9.46838
▁ถ้า	-9.46844
▁live	-9.4688
เจริญ	-9.46891
▁Some	-9.46899
▁1990	-9.46991
ทำงาน	-9.47015
▁points	-9.47112
▁started	-9.47306
▁b	-9.47403
▁eventually	-9.47494
สมัย	-9.47552
ข้อ	-9.47591
เชิง	-9.47599
wa	-9.47645
หน่วย	-9.47661
ดิน	-9.47748
▁rock	-9.47773
ak	-9.47825
ig	-9.47837
ประกอบ	-9.48018
line	-9.48066
เปลี่ยน	-9.48073
▁stage	-9.481
ชี	-9.48179
U	-9.48257
▁60	-9.48284
▁rest	-9.48487
ประมวลกฎหมาย	-9.48523
lin	-9.48526
▁sold	-9.48607
▁average	-9.48633
พันธุ์	-9.48699
เซอร์	-9.48708
▁together	-9.48711
ยะ	-9.4883
พัน	-9.48877
ong	-9.48907
วาง	-9.48911
สุด	-9.48918
▁features	-9.48932
ชาวอเมริกัน	-9.48942
▁feet	-9.49018
▁dis	-9.49106
▁จน	-9.4914
▁added	-9.49288
ca	-9.49363
▁ground	-9.49374
ful	-9.4955
▁popular	-9.49596
▁located	-9.49612
▁once	-9.4963
ship	-9.49667
▁process	-9.49678
ชนะ	-9.49691
▁Paul	-9.49698
▁ม	-9.49755
▁modern	-9.49841
เท	-9.50148
เช่น	-9.5018
สยาม	-9.50228
▁และมี	-9.50253
▁จำนวน	-9.50309
15	-9.50327
▁instead	-9.5037
ki	-9.50402
ผลงาน	-9.50423
บุคคล	-9.50543
คิด	-9.50571
รับตำแหน่งบริหาร	-9.50646
▁damage	-9.50647
▁นัก	-9.50668
กรม	-9.5068
ในปัจจุบัน	-9.50727
▁far	-9.50755
▁action	-9.50787
ally	-9.50824
ราชอิสริยาภรณ์	-9.50878
▁Ro	-9.50888
พันธมิตร	-9.50985
▁important	-9.51039
ี	-9.51071
▁Car	-9.5108
สภา	-9.51139
▁formed	-9.51186
▁project	-9.51198
▁consist	-9.51207
▁saw	-9.51237
01	-9.51267
ปลาย	-9.51316
per	-9.51317
▁population	-9.514
▁เธอ	-9.51453
fe	-9.51472
บันทึก	-9.5148
ควบคุม	-9.51495
▁anti	-9.51517
สถานี	-9.51538
ชน	-9.51681
ใส่	-9.51742
ลำ	-9.5182
▁ด้วย	-9.51855
สมเด็จพระ	-9.51987
▁completed	-9.5199
ฟ้า	-9.52005
มีอำนาจ	-9.52087
ities	-9.52247
▁Bo	-9.52367
op	-9.52436
▁Japan	-9.52497
▁field	-9.52523
▁ทรง	-9.52621
dy	-9.52738
▁Battle	-9.52787
ขนาด	-9.52801
40	-9.52816
▁t	-9.52973
รางวัล	-9.53014
▁playing	-9.53114
rather	-9.53163
▁Award	-9.53282
col	-9.53308
▁Lo	-9.53313
โบ	-9.53315
▁put	-9.53345
▁special	-9.53346
สิ่ง	-9.53374
สี่	-9.53419
พระยา	-9.53579
▁get	-9.53609
ดนตรี	-9.53667
สะ	-9.53767
▁behind	-9.53788
เคย	-9.53795
โย	-9.53802
▁event	-9.53804
▁นักแสดง	-9.53832
คิ	-9.53839
▁interest	-9.53861
30	-9.53891
แรง	-9.53955
ron	-9.53968
▁g	-9.53998
ในประเทศ	-9.54134
▁opened	-9.54322
อุ	-9.54416
▁Ne	-9.54574
จับ	-9.54641
▁Se	-9.54688
▁start	-9.54765
ออกไป	-9.54872
▁Ho	-9.54922
50	-9.54963
▁scene	-9.54969
ประชากร	-9.55037
hi	-9.55085
เลือก	-9.5519
▁Henry	-9.55313
ราว	-9.554
ya	-9.55433
โครงการ	-9.55437
▁see	-9.55461
▁heavy	-9.55495
สู่	-9.55738
▁โซลอน	-9.55745
mer	-9.55809
อายุ	-9.5583
▁party	-9.55922
สโมสร	-9.55954
▁able	-9.55976
อย่างเป็นทางการ	-9.56005
ชนิด	-9.56024
▁chart	-9.56063
ศักดิ์	-9.56383
▁case	-9.56403
▁lack	-9.56475
นักเรียน	-9.56478
▁attempt	-9.56482
ครอบครัว	-9.56537
▁subsequent	-9.56648
เซลล์	-9.56655
บุ	-9.56656
ier	-9.56705
พรรค	-9.56775
เย	-9.56801
▁construction	-9.56812
▁guns	-9.56902
รู้	-9.56943
rd	-9.56952
▁ชื่อ	-9.56971
▁และเป็น	-9.57157
เส้น	-9.5719
▁worked	-9.57289
16	-9.57329
มัก	-9.57345
▁upon	-9.57459
ts	-9.57512
▁°	-9.57528
กี	-9.57563
ster	-9.57582
ck	-9.57583
Y	-9.57597
▁official	-9.57613
14	-9.57635
เหตุการณ์	-9.57665
▁text	-9.57743
▁originally	-9.57748
แล	-9.57749
60	-9.57827
เดือน	-9.57841
▁35	-9.57884
con	-9.57894
การเลือกตั้ง	-9.57949
almost	-9.57987
บู	-9.58008
ตะวันตก	-9.58013
▁Red	-9.58057
▁every	-9.58111
ไท	-9.5812
▁สาขา	-9.58188
▁European	-9.5824
▁hit	-9.58257
ฺ	-9.58331
X	-9.58354
rs	-9.5837
รอ	-9.58454
ต่อไป	-9.58509
เว	-9.58585
สุดท้าย	-9.58597
▁born	-9.58714
วัตถุ	-9.58739
ตอน	-9.58825
▁highway	-9.58855
วิทยาศาสตร์	-9.58876
อะ	-9.589
▁Ar	-9.58902
▁fourth	-9.58914
สโมสรฟุตบอล	-9.58917
▁provided	-9.59016
we	-9.59052
▁Washington	-9.59084
▁Hall	-9.59165
▁court	-9.59309
ated	-9.59326
▁region	-9.59342
▁hand	-9.59365
▁weeks	-9.59372
ไม่สามารถ	-9.59416
▁star	-9.59477
เลี้ยง	-9.59589
พืช	-9.5959
▁1999	-9.59611
เอเธนส์	-9.59639
▁working	-9.59974
▁1980	-9.60055
ผู้เล่น	-9.60064
▁continue	-9.60166
▁brought	-9.60169
▁เป็นต้น	-9.602
ho	-9.60288
▁ตาม	-9.60418
▁Cup	-9.60478
▁least	-9.60503
ทิ	-9.60524
▁Europe	-9.60609
▁mother	-9.60644
ร่าง	-9.60674
▁White	-9.60732
ยอดเยี่ยม	-9.60753
ของเธอ	-9.60796
▁Sea	-9.6084
▁featured	-9.60854
ko	-9.60894
▁example	-9.60921
▁Po	-9.60958
ธง	-9.60989
▁๑	-9.61029
ราชการ	-9.61045
row	-9.61099
เก็บ	-9.61281
สิทธิ	-9.6138
แหล่งข้อมูลอื่น	-9.61383
อากาศ	-9.61413
pa	-9.61423
▁Ko	-9.61437
▁+	-9.61442
▁Charles	-9.61467
ครั้งที่	-9.61525
▁allowed	-9.6154
▁person	-9.6157
▁wanted	-9.61641
colspan	-9.6165
คนที่	-9.61702
จะเป็น	-9.61766
▁towards	-9.61769
▁art	-9.61781
สม	-9.61801
ละคร	-9.61809
▁Other	-9.61851
▁Ha	-9.61859
▁President	-9.61956
▁either	-9.62043
อต	-9.62048
ห้อง	-9.62058
▁ever	-9.62086
▁does	-9.621
อัลบั้ม	-9.62101
ence	-9.62161
ขาว	-9.6217
▁list	-9.62232
เข้าสู่	-9.62275
▁sound	-9.62318
▁met	-9.62377
พม่า	-9.62389
วิชา	-9.62433
▁placed	-9.62439
que	-9.62464
▁office	-9.62472
ap	-9.62495
red	-9.62506
โป	-9.62567
จา	-9.62576
ด์	-9.62589
ค่าย	-9.62661
▁allow	-9.62736
▁รวมถึง	-9.62739
▁love	-9.62769
▁contract	-9.62775
▁Peter	-9.62975
▁critics	-9.63023
ดำรงตำแหน่ง	-9.63044
ช้าง	-9.63096
▁works	-9.63174
▁รายชื่อ	-9.63202
▁Two	-9.63241
▁wife	-9.63355
เก่า	-9.63364
▁troops	-9.63545
ขาย	-9.63566
เอส	-9.63626
05	-9.63674
▁studio	-9.63693
บุตร	-9.63762
ตัด	-9.63785
▁army	-9.63892
ey	-9.63916
ell	-9.63999
▁Su	-9.64038
ของพระองค์	-9.64046
leading	-9.64052
ลม	-9.64063
▁month	-9.64066
อิน	-9.6409
ru	-9.64155
▁ในวันที่	-9.64198
18	-9.64292
ure	-9.6435
ครู	-9.64356
จิต	-9.64388
จง	-9.64504
▁First	-9.64678
พระบาทสมเด็จพระ	-9.64751
ต่อมา	-9.64824
▁generally	-9.64898
23	-9.64902
▁joined	-9.6494
ปัญหา	-9.6495
นายพล	-9.64952
อ่อน	-9.65006
...	-9.65013
▁round	-9.65019
เส้นทาง	-9.65148
ชอบ	-9.65151
▁1970	-9.65188
che	-9.6524
▁From	-9.6526
▁สมเด็จพระ	-9.65311
▁cut	-9.65406
21	-9.65428
▁scope	-9.65445
▁Pa	-9.65457
▁Li	-9.65581
▁runs	-9.65584
▁crew	-9.65598
▁ผลงาน	-9.65608
▁1998	-9.65613
13	-9.65616
ขึ้นมา	-9.65725
va	-9.65733
ให้แก่	-9.65758
สนับสนุน	-9.6578
บท	-9.65843
ตก	-9.65938
จู	-9.65974
ดินแดน	-9.65979
ท้องถิ่น	-9.65983
สหรัฐ	-9.66029
เข้าร่วม	-9.66062
▁clear	-9.66087
▁believed	-9.66098
▁island	-9.66147
เบอร์	-9.66158
▁others	-9.6618
วิน	-9.66224
▁opening	-9.66225
ger	-9.66332
▁Following	-9.66341
วร	-9.66358
▁turn	-9.66387
เนื่องจาก	-9.66445
17	-9.66454
The	-9.66512
▁color	-9.6654
▁director	-9.66637
ศาสตร์	-9.66652
▁ทีม	-9.66682
ถวาย	-9.66728
}	-9.66755
เป็นการ	-9.66765
ษ	-9.66787
▁length	-9.66819
▁gun	-9.66823
sen	-9.66828
▁หลัง	-9.66828
▁real	-9.6687
ไซ	-9.66878
▁replaced	-9.66902
ized	-9.66909
บิน	-9.66919
mi	-9.66929
คอน	-9.66934
พุทธ	-9.67026
ud	-9.67045
▁influence	-9.6707
ลีก	-9.67072
ให้เป็น	-9.67097
ea	-9.67132
▁events	-9.67172
ไร	-9.67172
คริสต์	-9.6723
บ้าง	-9.67261
ข่าว	-9.67269
มุ	-9.67281
▁Kingdom	-9.67311
▁victory	-9.67341
▁hurricane	-9.67348
ร่วมกับ	-9.67355
เส	-9.67384
อาการ	-9.67456
▁32	-9.67473
▁Thomas	-9.67513
เดิน	-9.67566
ting	-9.67596
io	-9.67598
▁พระเจ้า	-9.67632
เพื่อน	-9.67635
▁soon	-9.67645
และการ	-9.67668
▁term	-9.67713
vi	-9.67721
ปิด	-9.67747
▁พระองค์	-9.67877
▁เครื่อง	-9.67885
แผ่นดิน	-9.67911
▁designed	-9.67987
▁2550	-9.68023
ตำรวจ	-9.68054
คณะกรรมการ	-9.68063
ja	-9.68079
แพทย์	-9.68194
ทรราช	-9.68203
▁2554	-9.6821
ー	-9.68429
▁mph	-9.68545
oc	-9.68583
▁shot	-9.68592
vo	-9.6864
▁ทั้ง	-9.68652
▁involved	-9.68678
ร้อง	-9.68693
มากที่สุด	-9.68775
▁hours	-9.68807
▁Dr	-9.68913
โปลิส	-9.68975
9"	-9.69016
กอง	-9.69063
▁finished	-9.69081
▁ป	-9.69106
เข้าไป	-9.6911
▁๗	-9.69145
โจ	-9.69181
ung	-9.69214
ana	-9.69226
มักจะ	-9.69468
▁Or	-9.69493
▁goal	-9.6951
▁saying	-9.6953
ลด	-9.69583
▁usual	-9.69593
27	-9.6961
ดำ	-9.69689
▁successful	-9.69776
▁ผู้เล่น	-9.69937
▁human	-9.69949
สวน	-9.69992
\	-9.69998
ที่ถูก	-9.70006
▁Act	-9.7004
▁High	-9.7007
▁Hu	-9.70073
▁available	-9.70077
28	-9.70255
ไชย	-9.70269
22	-9.70295
ศาล	-9.70403
โกะ	-9.70535
▁Grand	-9.70553
▁Roman	-9.70587
tor	-9.70604
▁กิโลเมตร	-9.70665
om	-9.70727
ของนครรัฐกรีก	-9.7076
▁Vi	-9.70842
▁largest	-9.70858
▁pro	-9.70897
โฮ	-9.70901
▁เจ้า	-9.70915
ors	-9.70992
▁possible	-9.71035
▁southern	-9.71105
ite	-9.71157
▁bar	-9.71176
▁novel	-9.71283
▁Court	-9.71311
ลาย	-9.71378
▁cast	-9.71389
24	-9.71396
▁highest	-9.71422
ฟา	-9.71465
เกิดขึ้น	-9.71514
▁Great	-9.71557
class	-9.71574
▁Ben	-9.71583
สิ	-9.71651
▁Pe	-9.71678
ran	-9.71679
เอเชีย	-9.71688
ตลอด	-9.71708
▁must	-9.71741
▁change	-9.71773
▁earlier	-9.71842
▁1997	-9.71859
วิธี	-9.71896
เลือด	-9.71902
ide	-9.71938
ny	-9.72034
สนาม	-9.72074
▁มิ	-9.72077
▁minutes	-9.72104
พลังงาน	-9.72149
▁Navy	-9.72179
▁สุ	-9.72217
▁particularly	-9.72224
พอ	-9.72266
26	-9.72313
▁Island	-9.72369
he	-9.72418
ประตู	-9.72431
▁Lu	-9.72494
▁California	-9.72552
▁training	-9.72632
ten	-9.72666
หมายเลข	-9.72754
▁magazine	-9.72824
ศิลปะ	-9.72832
ตะวันออก	-9.72835
ical	-9.7292
ov	-9.72939
ก่อตั้ง	-9.7294
▁ตัว	-9.7294
▁look	-9.72946
▁Smith	-9.72957
ลักษณะ	-9.72958
ข้อความ	-9.72968
ลิน	-9.7299
▁อย่างไรก็ตาม	-9.73053
ศตวรรษที่แปด	-9.7307
ไฟฟ้า	-9.7313
ภ	-9.73158
เทคโนโลยี	-9.73167
▁?	-9.73225
ตลาด	-9.73441
▁view	-9.73447
▁decision	-9.73526
▁รวมทั้ง	-9.73529
▁Company	-9.73534
พูด	-9.73547
ป้องกัน	-9.73609
▁Awards	-9.73668
▁Canada	-9.7367
▁มาตรา	-9.73713
▁ซึ่งได้	-9.7373
ของประเทศ	-9.73744
ยังคง	-9.73792
04	-9.7383
▁๒	-9.73871
▁1960	-9.73901
▁base	-9.73936
▁king	-9.73989
ตรง	-9.73999
โบราณ	-9.74064
ทัพ	-9.74112
▁Union	-9.74137
▁lower	-9.74197
กรุง	-9.74224
ขา	-9.74277
บิ	-9.74372
ปีที่	-9.7443
อีกด้วย	-9.74443
▁sub	-9.74454
▁India	-9.74456
ย่อย	-9.74458
ไว	-9.74491
่ง	-9.74507
▁บ้าน	-9.74544
▁2551	-9.7457
▁Brown	-9.74579
▁surface	-9.74608
hu	-9.74638
▁Cor	-9.74666
▁Richard	-9.74741
การปกครองของ	-9.74772
▁review	-9.74803
▁Mc	-9.74881
▁appearance	-9.74905
ในฐานะ	-9.75082
▁coast	-9.75138
▁northern	-9.75162
อื่นๆ	-9.75231
▁Am	-9.75234
อย่างเช่น	-9.75297
▁45	-9.75358
au	-9.7538
▁praised	-9.75404
คริสต์ศตวรรษที่	-9.7543
▁passed	-9.75509
ชิง	-9.75533
อาชีพ	-9.75573
▁UK	-9.75631
วน	-9.75636
▁ไม่	-9.75682
▁ended	-9.75688
▁central	-9.7569
มณฑล	-9.75692
za	-9.75704
ประกอบด้วย	-9.75741
▁move	-9.75806
pe	-9.75935
ise	-9.75961
นาม	-9.76015
▁จากนั้น	-9.76054
ford	-9.76074
▁relationship	-9.76092
▁College	-9.76097
▁past	-9.76135
▁คา	-9.76218
แต่ง	-9.7625
▁แทน	-9.76255
▁๘	-9.7631
จักรพรรดิ	-9.76437
▁ครั้งที่	-9.76546
คะแนน	-9.76604
ซึ่งเป็น	-9.76692
▁come	-9.76726
les	-9.76754
▁เวลา	-9.76755
▁ความ	-9.76764
กรรม	-9.76766
▁speed	-9.76816
ขาด	-9.76852
ward	-9.76885
▁Green	-9.76887
▁league	-9.76907
▁Times	-9.76915
signed	-9.76931
สัญญา	-9.77032
▁church	-9.77047
forced	-9.77076
คู	-9.77105
ชัน	-9.77155
▁2555	-9.77176
อักษร	-9.77176
▁hard	-9.77264
ฉบับ	-9.77297
▁social	-9.77317
▁taking	-9.77326
▁เป็นต้นมา	-9.77327
รอง	-9.77493
▁find	-9.77608
size	-9.77612
ห้า	-9.7764
▁outside	-9.77653
▁Di	-9.77821
90	-9.77827
ดอน	-9.77855
45	-9.77932
ตระกูล	-9.77948
06	-9.78056
▁units	-9.78059
▁space	-9.78084
07	-9.78088
▁นอกจาก	-9.78094
gg	-9.78106
▁That	-9.78116
▁plan	-9.78121
▁1996	-9.7823
ที่ได้	-9.78243
▁2562	-9.78376
up	-9.78427
▁Day	-9.7845
อัล	-9.78505
▁จำกัด	-9.78532
เดอร์	-9.78539
▁Team	-9.7855
เนื้อ	-9.78617
▁ordered	-9.78628
สึ	-9.78634
อุตสาหกรรม	-9.78656
ศาสนา	-9.78669
เป	-9.78676
field	-9.7869
48	-9.78723
ล่า	-9.78733
เจ็ด	-9.78755
▁2560	-9.78784
▁better	-9.78787
อาร์	-9.78806
out	-9.78865
อาณาจักร	-9.78994
แม่น้ำ	-9.79045
▁positive	-9.79072
▁fact	-9.79089
▁wide	-9.79094
ซื้อ	-9.79105
▁70	-9.7912
wikitable	-9.79142
▁Bay	-9.79197
ยอด	-9.7924
▁Germany	-9.79248
องค์กร	-9.79341
▁Y	-9.79342
▁suggest	-9.79402
กว้าง	-9.79442
ข้าว	-9.7957
เท่า	-9.79573
อินเดีย	-9.79613
ville	-9.79661
turned	-9.79683
โช	-9.79732
พร้อม	-9.79878
tro	-9.79887
▁enough	-9.79956
▁winds	-9.8
หัวใจ	-9.80024
▁according	-9.80086
ions	-9.80096
เริ่มต้น	-9.80099
02	-9.80168
สถานที่	-9.80183
▁commercial	-9.80271
ted	-9.80302
ปกติ	-9.80355
▁above	-9.80358
▁300	-9.80385
ธุรกิจ	-9.80439
▁Association	-9.80467
▁Game	-9.80499
▁Hill	-9.80517
▁ex	-9.80526
gu	-9.80684
ฟุตบอล	-9.80684
ber	-9.80696
▁Force	-9.80743
▁nine	-9.80745
ai	-9.80772
▁act	-9.80798
หลังจาก	-9.80813
▁interview	-9.80859
si	-9.80875
▁Per	-9.80888
▁และได้	-9.80923
03	-9.80961
tri	-9.81081
ภา	-9.81084
ข้าม	-9.81152
▁NY	-9.8133
▁beginning	-9.81406
กล่าวว่า	-9.81408
หมด	-9.81441
ผ้า	-9.81441
▁1995	-9.81594
ว่าเป็น	-9.81703
▁told	-9.81734
▁Ba	-9.8176
ze	-9.81873
▁cause	-9.81882
▁daughter	-9.81887
▁red	-9.81888
▁going	-9.81892
▁Indian	-9.81933
ดังนี้	-9.81959
▁football	-9.81969
lan	-9.82014
▁Ta	-9.82025
▁£	-9.82102
▁Church	-9.82174
35	-9.8219
▁required	-9.82244
ราชวงศ์	-9.82306
ยุโรป	-9.82346
▁cover	-9.82444
▁failed	-9.82447
▁Christian	-9.82463
▁additional	-9.82522
ver	-9.82524
▁center	-9.82568
พระราช	-9.82645
▁2549	-9.82704
สถาบัน	-9.82852
▁section	-9.82858
ฝั่ง	-9.82953
▁90	-9.8309
▁directed	-9.8311
ถ	-9.83117
▁pressure	-9.83127
โครงสร้าง	-9.83181
ธรรมชาติ	-9.83281
▁elements	-9.833
พระราชทาน	-9.8331
▁1994	-9.83356
▁evidence	-9.83415
▁Don	-9.83439
ab	-9.83491
▁Lake	-9.83507
▁Year	-9.83532
รัสเซีย	-9.83532
low	-9.83551
▁itself	-9.83629
สาขา	-9.83654
▁อี	-9.83727
พวกเขา	-9.83728
▁Route	-9.83777
▁Rock	-9.83798
แพ้	-9.83811
▁cost	-9.83916
กันว่า	-9.83936
เศรษฐกิจ	-9.83943
▁sometime	-9.83961
▁face	-9.84013
▁give	-9.84083
▁Most	-9.84198
▁God	-9.84322
▁Te	-9.84331
เอ็ม	-9.84372
รอย	-9.84501
กระทรวง	-9.84515
▁Club	-9.84566
▁ตอน	-9.84606
▁recording	-9.84626
ได	-9.84661
ius	-9.84693
คดี	-9.8471
ทีมชาติ	-9.84711
ที่ไม่	-9.84712
▁international	-9.8473
▁Western	-9.84765
▁park	-9.84772
0%	-9.84793
wood	-9.84801
▁2556	-9.84873
▁attend	-9.84891
house	-9.84897
ven	-9.84918
มีส่วนร่วม	-9.84944
▁scor	-9.85017
ปกครอง	-9.85054
▁Soviet	-9.85059
▁course	-9.85111
▁Ma	-9.85123
ow	-9.85157
▁brother	-9.85194
ในเมือง	-9.85199
▁1992	-9.85219
▁Can	-9.85309
70	-9.85427
▁v	-9.85482
+	-9.85492
ที่สำคัญ	-9.85625
mb	-9.85664
นานาชาติ	-9.85745
▁musical	-9.85823
33	-9.85865
▁poor	-9.85897
พยายาม	-9.8596
▁whose	-9.86009
lready	-9.86021
การปกครอง	-9.8603
แบ่ง	-9.86034
มอน	-9.8604
▁!!	-9.86047
▁reviews	-9.8606
เต็ม	-9.86219
▁2552	-9.86233
▁future	-9.86307
ขยาย	-9.86313
▁voice	-9.8632
ยิง	-9.86322
▁program	-9.86445
จากการเลือกตั้ง	-9.86452
bi	-9.86517
ประชาธิปไตย	-9.86535
▁idea	-9.86536
▁travel	-9.86639
มาอยู่ด้วยกัน	-9.86675
31	-9.86788
▁trade	-9.86808
ซีรีส์	-9.86811
ภูมิ	-9.86828
▁bridge	-9.86829
ศูนย์	-9.86882
▁Los	-9.86895
อู	-9.86976
▁material	-9.87026
พื้น	-9.87045
ฉ	-9.87083
โปรแกรม	-9.87153
ชู	-9.87176
กิจ	-9.87213
เช	-9.87273
▁ภาษา	-9.87494
▁โปลิส	-9.87503
29	-9.87522
นี่	-9.87563
{	-9.87602
▁Du	-9.87612
▁เดือน	-9.87657
aw	-9.87732
▁whom	-9.87783
▁Party	-9.87792
▁Britain	-9.87846
▁2557	-9.879
▁states	-9.87918
▁police	-9.88
บุญ	-9.88027
asked	-9.88032
รัตน์	-9.88097
▁introduced	-9.88116
สกุล	-9.88119
▁Film	-9.8813
á	-9.88181
▁al	-9.88198
ผม	-9.88204
▁female	-9.88207
กาย	-9.8821
จบ	-9.8825
ถือ	-9.88268
▁entire	-9.88301
วิทยาลัย	-9.88314
▁approach	-9.88319
▁know	-9.88395
▁study	-9.88427
▁สามารถ	-9.88441
claimed	-9.88461
สื่อ	-9.8852
▁ในขณะที่	-9.88561
▁research	-9.88585
พิมพ์	-9.88597
▁quickly	-9.88629
▁TV	-9.88663
jo	-9.88849
▁1991	-9.88851
ผิด	-9.88875
แจ้ง	-9.88888
▁business	-9.88959
ไล	-9.88981
▁ในช่วงเวลา	-9.89023
▁suffer	-9.89044
ตู	-9.89054
▁Queen	-9.89062
ได้แก่	-9.89114
▁และทำให้	-9.89207
ator	-9.89256
▁issue	-9.89264
▁Chinese	-9.89271
ภาวะ	-9.89281
เปิดตัว	-9.89283
ศิลปิน	-9.89317
▁Q	-9.89353
mar	-9.89356
od	-9.89381
▁อัน	-9.89388
▁create	-9.89439
เห	-9.89486
แตก	-9.89516
สินค้า	-9.89527
เครื่องบิน	-9.8953
▁โค	-9.89585
ata	-9.89618
▁ใช้	-9.89696
gen	-9.8976
ン	-9.89796
ยุ	-9.89811
▁Tri	-9.89882
our	-9.89935
มอง	-9.89963
▁loss	-9.89981
คอมพิวเตอร์	-9.90044
ฆ่า	-9.90053
▁election	-9.90101
ดำเนินการ	-9.90105
▁Sun	-9.90132
ขวา	-9.90143
▁arrived	-9.90154
▁Th	-9.90175
โพ	-9.90271
ตัวเอง	-9.90292
▁2548	-9.90325
▁But	-9.90332
เจ้าหน้าที่	-9.90341
▁western	-9.9043
▁เดอะ	-9.90443
▁2020	-9.90617
การสร้าง	-9.9062
▁Center	-9.90623
▁groups	-9.90629
▁money	-9.90645
▁response	-9.90658
▁Sp	-9.90713
well	-9.90751
▁food	-9.90785
▁president	-9.90793
▁จนในที่สุด	-9.90825
้ง	-9.91054
ตัวละคร	-9.91087
เสด็จ	-9.91122
▁ซา	-9.91183
▁summer	-9.91196
▁33	-9.91248
mon	-9.91296
▁ดังนั้น	-9.91303
▁อิ	-9.9133
สั้น	-9.91348
▁type	-9.9135
▁unit	-9.9136
▁sp	-9.91366
▁especially	-9.91427
▁1993	-9.91487
▁Virginia	-9.91506
▁Lord	-9.91525
เฮ	-9.91561
ความเป็นไปของ	-9.91756
▁exist	-9.91913
การเมือง	-9.91917
▁radio	-9.91918
▁solid	-9.9196
พิจารณา	-9.91978
▁Jackson	-9.91986
ศึก	-9.91995
▁might	-9.92047
เมื่อปี	-9.9206
ภาษาอังกฤษ	-9.92074
▁China	-9.92078
▁เริ่ม	-9.92094
▁conduct	-9.92105
แห่งประเทศไทย	-9.92165
▁lines	-9.92221
▁2553	-9.92223
ฉัน	-9.92247
ยศ	-9.92263
▁fleet	-9.92264
▁๓	-9.92281
▁ครั้ง	-9.92304
▁structure	-9.92305
▁Council	-9.92372
▁website	-9.92462
▁2.	-9.92464
▁2561	-9.92474
han	-9.92478
▁community	-9.92526
▁pop	-9.92527
▁parts	-9.92528
▁560	-9.92552
▁carried	-9.92561
ประวัติ	-9.92597
สิบ	-9.92632
การพัฒนา	-9.9267
▁2559	-9.92704
▁films	-9.92757
▁Gu	-9.92773
ดะ	-9.92782
34	-9.92785
▁estimated	-9.92798
▁broadcast	-9.92868
ธาตุ	-9.92869
▁media	-9.92905
▁eastern	-9.92916
▁want	-9.92934
ประวัติศาสตร์	-9.92977
ฟิ	-9.92983
ต่ำ	-9.92996
66	-9.9301
▁serve	-9.93061
เย็น	-9.93066
▁audience	-9.93092
กิจการ	-9.93112
๑	-9.93124
โทรทัศน์	-9.93141
ปรากฏ	-9.93183
อิตาลี	-9.93229
▁remaining	-9.93247
▁size	-9.93286
ซัน	-9.9333
▁ball	-9.93339
▁river	-9.93445
▁provide	-9.93452
กล่าว	-9.93467
เยอรมัน	-9.93472
pt	-9.93477
ยาง	-9.93489
ó	-9.9354
▁larger	-9.93588
▁language	-9.93593
อเมริกัน	-9.9361
▁If	-9.93638
▁Sch	-9.93686
▁defeated	-9.93739
▁becoming	-9.9374
://	-9.93909
75	-9.94028
สองพระองค์	-9.9407
ตรี	-9.94074
ทุ่ง	-9.94155
ครั้งนี้	-9.94217
ควร	-9.9424
ม้า	-9.94264
ปู	-9.94275
▁self	-9.94347
▁keep	-9.94365
▁Edward	-9.94366
▁Spanish	-9.94381
▁Martin	-9.94422
บริการ	-9.94526
▁1950	-9.94537
▁percent	-9.9455
แข่งขัน	-9.9468
▁entered	-9.94741
กรุงเทพมหานคร	-9.94759
▁date	-9.94763
ที่เรียกว่า	-9.94793
องค์การ	-9.94798
ที่ดิน	-9.94803
ริน	-9.9482
ory	-9.94864
ek	-9.94866
▁latter	-9.94879
ปิ	-9.94927
one	-9.94944
▁double	-9.94977
▁private	-9.94983
▁current	-9.95023
▁Un	-9.95047
สืบ	-9.95094
▁Mark	-9.95103
สุข	-9.95121
ลาว	-9.95177
เป็นเมือง	-9.95215
เชียงใหม่	-9.95219
สภาพ	-9.95266
มากมาย	-9.95272
▁Mary	-9.95277
▁certain	-9.953
▁36	-9.95344
▁winning	-9.95352
▁personal	-9.95404
เหล่า	-9.95444
ยึด	-9.95492
▁นอกจากนี้ก็มี	-9.95538
ใคร	-9.95589
▁Bar	-9.95625
สภาเอฟอร์	-9.95674
เกอร์	-9.95712
▁students	-9.95731
▁เรื่อง	-9.95768
ประเทศไทย	-9.95772
▁เ	-9.95792
▁room	-9.95876
▁Russian	-9.95918
ชุมชน	-9.95958
รายงาน	-9.95985
พบว่า	-9.95985
▁Big	-9.96068
▁appointed	-9.96072
การตั้งอาณานิคม	-9.96106
ช่าง	-9.96129
สำนักงาน	-9.96151
▁deal	-9.96158
สหรัฐอเมริกา	-9.96199
▁Chicago	-9.96236
มงคล	-9.96269
เป็นที่	-9.96339
▁นาง	-9.96436
จำนวนมาก	-9.9654
▁division	-9.96579
▁amount	-9.96626
▁Tour	-9.9666
ครั้ง	-9.96697
▁access	-9.96699
แต่ละ	-9.96711
ร้าย	-9.96714
ชิ้น	-9.96716
▁limited	-9.96768
▁เอลิส	-9.96848
▁2558	-9.96854
หนึ่งของสันนิบาต	-9.96855
▁เข้าเป็นส่วน	-9.96862
▁di	-9.96946
เมการา	-9.96979
▁75	-9.96993
ประชากรของ	-9.97019
▁leaving	-9.97021
▁Time	-9.97046
เพลโต	-9.97091
เวอร์	-9.97148
ใกล้	-9.97154
▁คอรินธ์	-9.97274
▁destroyed	-9.97292
▁Billboard	-9.97295
ได้รับรางวัล	-9.97295
▁**	-9.97307
เป็นหนึ่งใน	-9.97312
มีเมืองสำคัญ	-9.97318
▁Da	-9.9732
ร่วมกัน	-9.97329
▁break	-9.97334
ju	-9.97342
▁Bi	-9.97403
คล้าย	-9.97454
▁หมู่ที่	-9.97468
bb	-9.97499
▁pass	-9.97531
๒	-9.97581
▁หลังจากปี	-9.97611
บริหารส่วนตำบล	-9.97626
▁teams	-9.97646
▁สาย	-9.97699
▁Super	-9.97738
ของตน	-9.97746
▁manager	-9.97754
▁effect	-9.97756
ปราสาท	-9.97764
▁staff	-9.97776
▁ภายใน	-9.97778
นิบาตเพโลนีเซียน	-9.97812
▁writer	-9.97848
▁pair	-9.9786
▁approximate	-9.97869
ker	-9.97871
▁defeat	-9.97897
▁And	-9.97942
เวียดนาม	-9.97952
▁2018	-9.97994
q	-9.98004
▁seem	-9.98057
รัฐธรรมนูญ	-9.98123
ating	-9.98153
ก็เริ่มสร้าง	-9.9817
นครรัฐกรีกต่าง	-9.98182
led	-9.98187
▁Second	-9.9821
ตร	-9.98236
ภาพกับบรรดา	-9.98296
ji	-9.98329
▁Group	-9.98355
nes	-9.98366
▁script	-9.98367
ภูมิภาค	-9.98372
▁movement	-9.98387
เอกสาร	-9.98403
▁proposed	-9.98407
▁overall	-9.98436
▁เป็นผลให้	-9.98459
สหราชอาณาจักร	-9.98521
95	-9.98534
▁รัฐ	-9.98571
ต่อต้าน	-9.98577
▁นักร้อง	-9.98586
คัน	-9.98622
เสมอ	-9.98634
▁shows	-9.9866
▁720	-9.98707
▁Pacific	-9.98709
▁III	-9.98783
▁เว็บไซต์	-9.98799
สอน	-9.98892
เหมือนแค่	-9.98978
▁Jack	-9.99056
iv	-9.99068
กิจกรรม	-9.99091
ไหล	-9.9912
ถูกลดสถานะลงเป็น	-9.99136
ผสม	-9.99171
▁experience	-9.99173
▁รายการ	-9.9919
แผ่น	-9.99236
▁running	-9.99296
▁Many	-9.99344
กระบวนการ	-9.99358
chi	-9.99385
▁model	-9.9939
ราม	-9.99439
▁en	-9.99457
▁Ri	-9.99507
พวกเผด็จการ	-9.99522
ทั่วโลก	-9.9953
▁edition	-9.99533
▁regular	-9.99538
คง	-9.99552
▁agreed	-9.99554
ร่างกาย	-9.99563
ศูนย์กลาง	-9.99566
▁deep	-9.99575
ไว้เหมือนอย่าง	-9.99587
งาม	-9.99637
ในขณะที่กษัตริย์	-9.99639
▁pay	-9.99639
▁scenes	-9.99647
สาว	-9.99675
ทางการเมือง	-9.99779
ชะตาของเมือง	-9.9978
▁intended	-9.99791
ซาน	-9.99794
▁board	-9.99809
▁ผู้ได้รับ	-9.99814
▁ที่กุม	-9.99817
▁appear	-9.99818
lam	-9.99869
▁professional	-9.99879
ประกาศใช้	-9.99887
ที่อยู่	-9.99898
▁Press	-9.99918
▁changes	-9.99948
▁la	-9.99983
▁740	-9.99997
เรียกพวกนี้	-10
▁Pi	-10.0007
▁Johnson	-10.0007
การเกิดขึ้น	-10.0009
ถึงขนาดที่ว่า	-10.001
▁1940	-10.0022
บางส่วน	-10.0024
▁Earth	-10.0025
วัฒนธรรม	-10.0026
▁หมายถึง	-10.0026
tra	-10.0027
ฟัง	-10.0029
บัว	-10.0033
เดินทาง	-10.0035
▁awarded	-10.0037
▁สัน	-10.004
ปืน	-10.0045
▁Men	-10.0051
ทางด้าน	-10.0058
เหล็ก	-10.0058
ลิง	-10.0058
ดวง	-10.0061
side	-10.0067
ตาราง	-10.0067
ั	-10.0068
ราคา	-10.007
kin	-10.007
▁effects	-10.0071
▁married	-10.0082
head	-10.0084
time	-10.0086
36	-10.0087
ขุนนาง	-10.0088
คำว่า	-10.0091
สองพระองค์ของ	-10.0098
▁หาก	-10.0098
ฮิ	-10.0099
65	-10.0101
val	-10.011
รอน	-10.0114
ปกับกษัตริย์	-10.0114
ประสบความสำเร็จ	-10.0115
อำนาจควบคู่ไ	-10.0118
▁forward	-10.0118
▁Final	-10.0119
fer	-10.012
แสน	-10.0124
▁34	-10.0124
▁traditional	-10.0127
▁data	-10.0127
เดียวกันนี้เอง	-10.0128
▁feature	-10.0129
ก็ก้าวขึ้นมามี	-10.013
▁helped	-10.013
โรง	-10.0131
▁Port	-10.0132
การผลิต	-10.0135
▁child	-10.0137
▁supported	-10.014
รบ	-10.0148
▁Har	-10.0149
สภามีสมาชิก	-10.0154
▁need	-10.0155
นครรัฐขึ้น	-10.0162
Ephor	-10.0163
ท้อง	-10.0175
▁village	-10.0176
▁องค์การ	-10.0177
ไลเคอร์กัส	-10.0182
ทำหน้าที่	-10.0184
จำ	-10.0186
ทำการ	-10.0189
▁ชั้น	-10.0193
▁rights	-10.0195
▁commander	-10.0196
▁ท่าน	-10.021
ari	-10.0211
นาน	-10.0215
เซน	-10.0225
หน่วยงาน	-10.0227
▁Ni	-10.0229
▁individual	-10.0231
▁author	-10.0235
คอย	-10.0244
จนถึง	-10.0251
Helot	-10.0251
▁Tom	-10.0255
▁สังกัด	-10.0257
▁longer	-10.0258
▁Empire	-10.026
สูตร	-10.0265
ren	-10.0266
▁critical	-10.0272
สิ่งที่	-10.0272
▁centre	-10.0273
ไม	-10.0274
หมู่บ้าน	-10.0274
▁planned	-10.0278
โนะ	-10.0278
▁Cha	-10.028
▁Canadian	-10.0283
the	-10.0286
ึ่งทาส	-10.0289
แค	-10.029
จะถูก	-10.0292
▁higher	-10.0292
เฟ	-10.0292
▁compared	-10.0292
▁living	-10.0293
ach	-10.0293
▁captured	-10.0295
▁37	-10.0295
▁increasing	-10.0296
▁related	-10.0296
อดีต	-10.0296
นโยบาย	-10.0297
มาเป็นประชากรก	-10.0307
รัน	-10.0308
พิธี	-10.0308
00	-10.0309
idae	-10.0319
ก็จะ	-10.0319
ology	-10.0321
ระหว่างประเทศ	-10.0323
▁และมีการจับ	-10.0324
▁press	-10.033
▁changed	-10.0335
pp	-10.0336
32	-10.0336
▁fight	-10.0337
ออกอากาศ	-10.034
▁themselves	-10.0343
▁done	-10.0346
▁active	-10.0347
▁subject	-10.0347
▁Old	-10.0353
▁fifth	-10.0357
ราชอาณาจักร	-10.036
ile	-10.0366
▁งาน	-10.0369
แต่งตั้งให้เป็น	-10.0369
▁2563	-10.0371
▁singer	-10.0371
ative	-10.0373
▁การปฏิรูป	-10.0374
เนอร์	-10.0377
▁episodes	-10.0381
▁มีอำนาจเหนือ	-10.0382
ft	-10.0384
▁fans	-10.0385
เพิ่มเติม	-10.039
▁Florida	-10.0392
สมัชชาเมือง	-10.0394
หลักสูตร	-10.0397
▁gold	-10.0398
▁เจ้าชาย	-10.0399
▁capital	-10.0401
▁400	-10.0406
สถาน	-10.0407
พระนาม	-10.0409
เดอะ	-10.0411
อะไร	-10.0412
ความเป็น	-10.0414
กรูเซีย	-10.0415
▁แม้ว่า	-10.0417
res	-10.0418
จะได้	-10.0422
เจ้าอยู่หัว	-10.0423
กอ	-10.0426
จันทร์	-10.0426
สภาผู้เฒ่า	-10.0428
ทู	-10.0431
ดัง	-10.0443
▁natural	-10.0444
08	-10.0444
ด้วยการ	-10.0446
▁Che	-10.0451
กฎระเบียบ	-10.0451
ทีวี	-10.0452
ซุ	-10.0452
▁Central	-10.0457
▁plot	-10.0458
▁thus	-10.0459
▁Ga	-10.0473
ลบ	-10.0474
▁Sir	-10.0474
▁Italian	-10.0475
อาจจะ	-10.0476
ists	-10.0477
▁port	-10.0478
จอม	-10.0478
▁สงครามกับ	-10.0479
▁ทาง	-10.0479
font	-10.0487
▁woman	-10.0489
▁ตั้งแต่	-10.0494
▁Hot	-10.0495
▁our	-10.0501
▁via	-10.0502
ino	-10.0503
▁produce	-10.0514
▁producer	-10.0515
อาวุธ	-10.0518
โทษ	-10.0518
เกิดขึ้นประมาณปี	-10.0518
▁stop	-10.0526
▁leader	-10.0528
▁Mac	-10.0528
gar	-10.0534
▁Ke	-10.0534
▁leave	-10.0535
▁Africa	-10.0538
▁whether	-10.0539
▁Later	-10.0542
▁friend	-10.0544
รัง	-10.0544
สิทธิ์	-10.0546
ทหารฯ	-10.0547
ดอก	-10.0553
▁----	-10.0553
โตะ	-10.0553
▁Over	-10.0554
ออ	-10.0556
▁competition	-10.0559
▁report	-10.0561
น้ำมัน	-10.0565
ดินแดนด้วยกำลัง	-10.0569
▁copies	-10.0571
▁จ	-10.0572
▁Si	-10.0572
▁cm	-10.0573
เริ่มมีการขยาย	-10.0576
จักรวรรดิ	-10.0581
ภู	-10.0582
แผน	-10.0584
มาตรฐาน	-10.0586
▁prior	-10.0589
▁think	-10.0589
ฤดูกาล	-10.0589
▁probably	-10.0592
ib	-10.0594
สตาร์	-10.0595
▁Since	-10.06
▁38	-10.06
▁หลังจากนั้น	-10.06
▁perform	-10.0601
▁Jo	-10.0601
▁soldiers	-10.0602
ห้วย	-10.0603
▁ถนน	-10.0603
▁coach	-10.0607
cy	-10.0607
37	-10.0611
ระบอบสองกษัตริย์	-10.0611
เสือ	-10.0614
▁Both	-10.0614
ประธานาธิบดี	-10.0615
▁2017	-10.0617
don	-10.0618
▁(1	-10.0618
ee	-10.0619
44	-10.0619
แถบ	-10.062
▁ซึ่งมี	-10.062
พ่อ	-10.0622
-1	-10.0622
99	-10.0625
ความมั่นคงภายใต้	-10.0627
pi	-10.063
สิงห์	-10.0632
ris	-10.0635
47	-10.0635
▁typical	-10.0637
เรีย	-10.0638
▁advance	-10.0641
▁imp	-10.0641
▁extended	-10.0641
ในช่วงศตวรรษที่	-10.0644
▁background	-10.0644
▁1989	-10.0647
ทำให้สปาร์ตา	-10.0648
▁remains	-10.0648
ถ้า	-10.0652
▁concept	-10.0658
ดาบ	-10.066
▁Wood	-10.0663
▁issued	-10.0665
กล	-10.0667
.00	-10.0668
Z	-10.0673
▁countries	-10.0675
ในเขต	-10.0678
▁difficult	-10.068
นับ	-10.068
▁stars	-10.068
▁minor	-10.0682
วัย	-10.0683
▁Texas	-10.0684
end	-10.0686
▁Atlantic	-10.0687
tin	-10.0688
ตัวตนจริงหรือไม่	-10.069
▁สภาเอฟอร์	-10.0695
หนอง	-10.0695
ท้าย	-10.0696
▁แต่ก็ไม่มีใคร	-10.0697
ในเรื่อง	-10.07
โอลิมปิกฤดูร้อน	-10.0702
เลื่อน	-10.0704
ที่สอง	-10.0708
หก	-10.0708
มาร์	-10.0709
▁separate	-10.0712
▁โดยเปิด	-10.0714
▁ซี	-10.0715
อุปกรณ์	-10.0717
ของผู้ให้	-10.0718
ได้ว่าจริงๆแล้ว	-10.0723
suggested	-10.0726
berg	-10.073
▁network	-10.0737
ดูแล	-10.0739
▁2564	-10.074
Lycurgus	-10.0743
กรุงเทพ	-10.0748
▁พล	-10.0751
▁2019	-10.0751
มุม	-10.0753
▁Highway	-10.0754
▁information	-10.0754
สัก	-10.0755
เซีย	-10.076
เยอรมนี	-10.0761
เหลือ	-10.0768
port	-10.0771
▁เม	-10.0772
ทราบ	-10.0772
▁Another	-10.0774
▁demand	-10.0776
กฎหมายชื่อ	-10.0776
▁2547	-10.0777
▁immediately	-10.0782
▁metal	-10.0783
▁ยู	-10.0784
▁Ch	-10.0784
เทอร์	-10.0785
ปฏิบัติการ	-10.0786
กันว่าเป็นผลงาน	-10.0789
ครึ่ง	-10.0797
▁มีการ	-10.0797
▁request	-10.0799
▁ระบบ	-10.08
สถาปัตยกรรม	-10.0802
เพื่อให้	-10.0802
▁mixed	-10.081
ซ้าย	-10.0812
▁พระยา	-10.0813
ชาวสปาร์ตาเชื่อ	-10.0819
▁operations	-10.0821
รส	-10.0823
▁pilot	-10.0824
ev	-10.0825
ซึ่งตามตำนานแล้ว	-10.0836
สมาคม	-10.0841
▁Squadron	-10.0841
ผู้ที่	-10.0843
ต้องมีการปฏิรูป	-10.0843
ised	-10.0844
▁fell	-10.0848
▁location	-10.0861
เป็นคน	-10.0862
จิน	-10.0863
▁อาคาร	-10.0879
ระบุ	-10.0882
▁tracks	-10.0887
46	-10.0889
▁1930	-10.0891
แฟน	-10.0892
▁always	-10.0895
ร้อยละ	-10.0896
ทั้งเฮโรโดตัส	-10.0896
▁key	-10.0896
สิ้นสุด	-10.0899
▁removed	-10.0904
▁จนกระทั่ง	-10.0907
▁เฮล็	-10.0908
รับการบอกเล่าจาก	-10.0909
▁lyrics	-10.091
▁ISBN	-10.0911
เป็นยุคสมัย	-10.0911
tur	-10.0912
ความไม่สงบภายใน	-10.0914
การจัด	-10.0916
ต้องการ	-10.0918
ฉาย	-10.0924
▁prevent	-10.0924
all	-10.0926
▁(25	-10.093
▁เจ้าหญิง	-10.0934
แลนด์	-10.094
ของความไร้	-10.0949
ฮ	-10.095
▁likely	-10.095
▁economic	-10.0951
ที่ได้รับ	-10.0952
พัก	-10.0954
▁Sam	-10.0956
นัด	-10.0959
เกาหลี	-10.096
▁ranked	-10.0965
ลำดับ	-10.0965
ือ	-10.0967
▁minute	-10.097
พระมหากษัตริย์	-10.0972
Assembly	-10.0972
ปรับ	-10.0981
ring	-10.0982
เอฟ	-10.0985
▁got	-10.0989
แนวคิด	-10.0998
▁แปลว่า	-10.1006
เกิน	-10.1007
จึงได้	-10.1009
ชิน	-10.1014
▁cyclone	-10.1015
ฟู	-10.1017
▁Life	-10.1017
สตรี	-10.1017
ไน	-10.1018
▁camp	-10.1021
▁du	-10.1021
ธนาคาร	-10.1021
ย่อ	-10.1031
ara	-10.1031
vin	-10.1033
ก่อ	-10.1037
▁test	-10.1041
har	-10.1049
ยิ่ง	-10.1051
ทัน	-10.1051
▁officers	-10.1054
▁meeting	-10.1057
▁dance	-10.1058
▁Ex	-10.1061
หยุด	-10.1061
ization	-10.1063
และทิวซิดิดีส	-10.1063
▁Saint	-10.1064
ไกล	-10.1064
เป็นครั้งแรก	-10.1064
สีแดง	-10.1067
เชื่อว่า	-10.1069
yn	-10.1069
▁Frank	-10.1072
▁something	-10.1073
▁offered	-10.1074
▁1945	-10.1082
▁guitar	-10.1084
วิธีการ	-10.1087
▁อัลบั้ม	-10.1088
ica	-10.1089
▁foot	-10.1093
หนัก	-10.1093
▁Angeles	-10.1096
ผี	-10.11
ผิว	-10.1101
55	-10.1101
ลาน	-10.1103
▁direct	-10.1111
▁ran	-10.1113
กองกำลัง	-10.1114
▁buildings	-10.1115
▁whole	-10.1115
ย้าย	-10.1116
▁wind	-10.112
ชม	-10.1122
▁En	-10.1122
ตีพิมพ์	-10.1125
▁avoid	-10.1127
ทำลาย	-10.1128
▁believe	-10.1128
▁majority	-10.1129
▁ประกอบด้วย	-10.1134
-19	-10.1134
▁potential	-10.1137
อุทธรณ์คำสั่ง	-10.1138
?	-10.114
ของเมืองได้	-10.1142
67	-10.1143
▁ชาว	-10.1145
▁problems	-10.1145
ของการ	-10.1148
ub	-10.115
96	-10.1151
▁Congress	-10.1152
▁Stone	-10.1153
▁Ph	-10.1156
ไร้	-10.1157
▁flight	-10.1159
กล่าวถึง	-10.116
▁status	-10.1162
ทุกคน	-10.1162
งค์	-10.1164
พระราชบัญญัติ	-10.1165
▁account	-10.1166
มิได้	-10.117
ฉาก	-10.1173
ระเบิด	-10.1176
ขนาดเล็ก	-10.1181
ไปยังสมัชชา	-10.1194
เวน	-10.1196
sky	-10.1201
42	-10.1203
หนัง	-10.1207
ชาร์ต	-10.1216
▁2565	-10.122
มู	-10.1223
ไค	-10.1224
ี่ร้อย	-10.1228
▁150	-10.123
เมอร์	-10.1231
ให้พลเมืองสามารถ	-10.1238
gate	-10.1242
จำกัดอำนาจของ	-10.1247
▁Art	-10.1251
▁nature	-10.1251
▁don	-10.1255
88	-10.1255
light	-10.1257
▁dark	-10.1257
▁tons	-10.1261
▁อำเภอเมือง	-10.1262
ขึ้นไป	-10.1265
ลงไปในรัฐธรรมนูญ	-10.1265
▁screen	-10.1266
▁DVD	-10.1269
หรือนำ	-10.1269
แอล	-10.127
ที่ตั้ง	-10.1271
▁plans	-10.1272
▁Live	-10.1275
▁direction	-10.1276
สังกัด	-10.1282
กระแส	-10.1283
กระดูก	-10.1288
วรรณ	-10.1291
แข็ง	-10.1291
ต่างประเทศ	-10.1293
inspired	-10.1293
▁และใส่ข้อ	-10.1295
▁Wi	-10.1295
shi	-10.1297
ph	-10.1297
▁damaged	-10.1301
เอ็น	-10.1308
▁frequent	-10.1309
▁Greek	-10.1312
▁ไม่มี	-10.1312
เดี่ยว	-10.1313
▁revealed	-10.1316
su	-10.1317
▁terms	-10.1321
▁Society	-10.1326
58	-10.1327
แกน	-10.1328
ออกแบบ	-10.1331
▁numero	-10.1337
▁hour	-10.1339
โส	-10.1351
▁particular	-10.1351
ious	-10.1352
้น	-10.1352
▁เจ	-10.1354
▁composed	-10.1355
fa	-10.1356
ู่สมัชชาใหญ่	-10.1357
ของโลก	-10.1359
เช่นกัน	-10.1362
associated	-10.137
งเรื่องเข้าส	-10.1371
▁respectively	-10.1372
ู	-10.1373
▁discovered	-10.1374
raised	-10.1379
บาร์	-10.1379
ens	-10.138
41	-10.1381
▁ปลา	-10.1383
เผยแพร่	-10.1383
รับผิดชอบในการช	-10.1385
38	-10.1386
▁49	-10.1391
unt	-10.1391
53	-10.1394
หมายถึง	-10.1395
▁2544	-10.1397
ทราย	-10.1398
เพิ่มขึ้น	-10.1399
เข้าฟัง	-10.1399
เจ้าชาย	-10.1404
▁1988	-10.1405
▁เซ	-10.1406
mann	-10.1406
จัดตั้งสภาส	-10.1411
▁เกิด	-10.1412
เป็นส่วนหนึ่งของ	-10.1412
▁yet	-10.1413
▁Mor	-10.1416
▁blue	-10.142
▁Pre	-10.142
▁collection	-10.142
นักแสดง	-10.1423
▁effective	-10.1426
แอ	-10.1426
การพิจารณาคดีได้	-10.1427
▁appears	-10.1429
▁รวม	-10.143
▁dead	-10.1434
▁Ge	-10.1435
สระ	-10.1439
สีขาว	-10.144
เพ	-10.1442
คี	-10.1446
เรน	-10.1446
56	-10.1454
▁Test	-10.1458
▁อัล	-10.1459
▁needed	-10.1461
▁standard	-10.1462
เกียรติ	-10.1464
โซลอนยัง	-10.1472
เพชร	-10.1474
▁Ver	-10.1474
▁Van	-10.1476
จักร	-10.1479
ด้วยกัน	-10.1482
▁พบ	-10.1489
▁lived	-10.1493
lu	-10.1493
▁contains	-10.1494
สมัชชาใหญ่ของ	-10.1494
really	-10.1494
▁transport	-10.1494
เป็นเวลา	-10.1498
แม	-10.1499
▁complex	-10.1503
▁upper	-10.1505
เข้าร่วมประชุมใน	-10.1506
▁services	-10.1509
▁launched	-10.151
ก็คือ	-10.151
▁reach	-10.1511
▁00	-10.1516
▁occurred	-10.1517
ลอ	-10.152
เทคนิค	-10.1523
▁แต่มีสิทธิ	-10.1525
▁moving	-10.153
โจมตี	-10.1532
▁39	-10.1536
แก	-10.1537
▁goals	-10.1539
ปะ	-10.154
▁shown	-10.1545
ขุน	-10.1545
▁legal	-10.1546
จะไม่	-10.1547
="2"	-10.1547
ทัพไม่ได้	-10.1547
กรณี	-10.1547
▁สำหรับค	-10.1549
▁Minister	-10.1549
ō	-10.1553
▁Gi	-10.1553
▁คำ	-10.1554
▁market	-10.1554
ส่วนตัว	-10.1554
สมบูรณ์	-10.1558
เดอ	-10.156
39	-10.1563
▁Bridge	-10.1564
nearly	-10.1564
▁Lee	-10.1565
ขน	-10.1566
วะ	-10.1566
▁หมู่บ้าน	-10.1571
สะพาน	-10.1571
▁Bill	-10.1574
ทะ	-10.1574
หู	-10.1575
บริหารปกครอง	-10.1575
เรียกว่าพวก	-10.1583
77	-10.1584
▁โดยการ	-10.1584
ita	-10.1585
เสา	-10.1586
นั่ง	-10.1593
เห็นว่า	-10.16
ฟัน	-10.16
ผู้หญิง	-10.16
▁Chris	-10.1605
▁Line	-10.1607
if	-10.1607
ประเทศของตน	-10.1609
นักกีฬา	-10.161
tz	-10.1611
อ่าน	-10.1611
นฐานะยากจน	-10.1614
และจำนวนที่	-10.1618
▁ผล	-10.1619
เนีย	-10.1623
98	-10.1623
▁box	-10.1628
สเปน	-10.1634
สเต	-10.1636
▁depression	-10.1636
▁attempted	-10.1639
ริม	-10.164
ทุน	-10.164
สัปดาห์	-10.1642
ดินที่ครอบครอง	-10.1645
นักศึกษา	-10.1647
referred	-10.1653
ลับ	-10.1657
▁college	-10.1658
▁conditions	-10.1663
โรงพยาบาล	-10.1668
เล่า	-10.1671
ยาน	-10.1672
▁และหันมาใช้	-10.1675
▁African	-10.168
เดช	-10.1681
▁word	-10.1683
▁male	-10.1685
▁ดร	-10.1685
54	-10.1687
นอน	-10.1688
ในสมัย	-10.169
พงศ์	-10.169
87	-10.1693
นู	-10.1701
ห้าม	-10.1709
เรื่องชาติกำเนิด	-10.171
▁Ti	-10.1713
ในการรับหน้าที่	-10.1713
ขั้น	-10.1716
▁Prince	-10.1716
เชื้อสาย	-10.1717
อิสระ	-10.1717
การทำงาน	-10.1719
ได้ถูก	-10.172
▁ศรี	-10.1721
!!	-10.1722
มอบ	-10.1723
▁sales	-10.1724
ยกเลิกข้อกำหนด	-10.1724
▁Corps	-10.1726
▁castle	-10.1726
▁slow	-10.173
gi	-10.1732
43	-10.1735
ต้องรับผิดชอบต่อ	-10.1736
▁selected	-10.1741
วิ่ง	-10.1744
▁Scott	-10.1746
85	-10.1748
▁Gold	-10.1748
ฟี	-10.1749
▁severe	-10.1751
▁heart	-10.1755
ations	-10.176
▁smaller	-10.1761
▁elected	-10.1765
▁๔	-10.1777
▁thetes	-10.1779
ขยายโอกาสในการ	-10.178
การ์	-10.1781
เกณฑ์ราย	-10.1783
▁Under	-10.1789
▁practice	-10.1792
จัดตั้ง	-10.1796
เชื่อว่ามนุษย์	-10.1799
▁Top	-10.1799
ay	-10.18
▁1944	-10.1811
▁cap	-10.1812
▁Series	-10.1819
▁finally	-10.1821
ศิริ	-10.1823
ou	-10.1823
ett	-10.1828
สร้างรูปแบบ	-10.1839
พระราชวัง	-10.1844
อินโดนีเซีย	-10.1845
หาก	-10.1846
▁อาวุธ	-10.1846
ภาพยนตร์เรื่อง	-10.1847
▁extra	-10.1848
▁2535	-10.1849
มีลักษณะ	-10.1854
▁captain	-10.1856
▁feel	-10.1857
▁1942	-10.1857
▁yards	-10.1863
ทั้งหลาย	-10.1865
ร่วมในการปกครอง	-10.1866
▁leg	-10.1867
▁Cross	-10.1871
เลีย	-10.1872
นครราชสีมา	-10.1875
▁industry	-10.1875
▁1987	-10.1877
ade	-10.1879
ize	-10.1879
นี้เป็น	-10.188
▁attention	-10.1885
▁1,	-10.1886
▁operation	-10.1886
▁โซลอนยัง	-10.1894
ุกคนสามารถมีส่วน	-10.1897
๊ก	-10.1898
ast	-10.1899
พงษ์	-10.19
▁normal	-10.19
คลื่น	-10.1901
▁letter	-10.1902
▁bill	-10.1903
▁Long	-10.191
▁earned	-10.1911
▁plant	-10.1912
▁situation	-10.1912
ยังมี	-10.1913
▁mass	-10.1915
การเมืองให้ท	-10.1917
ยืน	-10.1921
="1"	-10.1924
▁expected	-10.1925
▁commented	-10.1927
▁sister	-10.1927
โพธิ์	-10.1928
▁assigned	-10.193
▁Entertainment	-10.1932
▁quarter	-10.1933
สุขภาพ	-10.1933
หาง	-10.1934
▁takes	-10.1939
▁officer	-10.1945
▁conflict	-10.1946
▁คอนเสิร์ต	-10.1946
▁Bur	-10.1954
av	-10.1957
▁artist	-10.1958
▁Like	-10.1958
ไฮ	-10.1959
▁1920	-10.196
ney	-10.1962
ep	-10.1962
▁ครอบคลุมพื้นที่	-10.1963
มีอำนาจต่อรอง	-10.1964
color	-10.1966
เสริม	-10.1971
ซิน	-10.1972
พายุ	-10.1973
▁Mi	-10.1974
bu	-10.1977
▁listed	-10.1979
▁แม้จะเข้า	-10.198
▁Wales	-10.1984
▁บาท	-10.1985
ี่เป็นชนชั้นกลาง	-10.1989
▁culture	-10.1991
▁Chart	-10.1992
ดง	-10.1994
เตรียม	-10.1997
▁Fox	-10.1998
▁science	-10.2001
ก่อสร้าง	-10.2003
▁48	-10.2005
▁ลักษณะ	-10.2007
ทำให้พลเมืองท	-10.2008
่น	-10.201
▁primary	-10.201
ทำให้เกิด	-10.2012
ธิดา	-10.2015
▁oppos	-10.2019
เกล้าเจ้าอยู่หัว	-10.2024
▁การจัด	-10.2025
สั่ง	-10.2031
▁2546	-10.2033
▁Show	-10.2036
▁attacks	-10.204
▁refused	-10.2042
▁1986	-10.2047
▁distance	-10.2049
▁covered	-10.2051
ออสเตรเลีย	-10.2051
▁และยกเลิกการ	-10.2053
▁closed	-10.2061
การค้า	-10.2061
▁ยัง	-10.2066
▁1941	-10.2068
ะการก่อหนี้	-10.2071
▁blood	-10.208
เจน	-10.2085
เหตุ	-10.2088
-25	-10.2089
ต้องตกเป็นทาสเพ	-10.2091
61	-10.2091
▁Of	-10.2093
ez	-10.2095
▁Three	-10.21
valign	-10.2101
ella	-10.2102
▁โดยเฉพาะ	-10.2108
▁impact	-10.2109
ริเริ่มการปฏิรูป	-10.211
และมี	-10.211
นุ	-10.2114
ชื่อว่า	-10.2114
▁below	-10.2116
สำเร็จ	-10.2122
▁issues	-10.2123
กรรมสิทธิที่ดิน	-10.2124
▁ขณะที่	-10.2131
หลักฐาน	-10.2134
▁rate	-10.2137
กระทำ	-10.2138
▁Department	-10.2138
▁train	-10.2143
อม	-10.2144
border	-10.2144
▁ในช่วง	-10.2145
▁enjoy	-10.2147
▁chief	-10.2148
gan	-10.2162
สมอง	-10.2162
▁build	-10.2164
▁middle	-10.2164
use	-10.2166
▁Zealand	-10.2167
▁ถูก	-10.2171
pent	-10.2171
▁Sal	-10.2174
▁ลงมา	-10.2178
▁health	-10.2183
▁Oxford	-10.2183
▁friends	-10.2185
▁declared	-10.2188
มิน	-10.2189
=#	-10.2189
ปฏิบัติ	-10.2191
ผ	-10.2192
▁BBC	-10.2198
ในพื้นที่	-10.2198
▁Museum	-10.2198
▁41	-10.22
นายกรัฐมนตรี	-10.2201
78	-10.2201
94/3	-10.2205
▁giving	-10.2205
▁Records	-10.2205
▁ศิลปิน	-10.2205
mp	-10.2209
▁scale	-10.2218
sha	-10.2223
▁2539	-10.2225
คัพ	-10.2228
คอม	-10.2229
tion	-10.223
และผู้ไกล่เกลี่ย	-10.2233
สิ้นพระชนม์	-10.2237
▁religious	-10.2249
มาถึง	-10.2251
▁concert	-10.2255
กัมพูชา	-10.2258
▁fighting	-10.2259
▁2542	-10.226
แซ	-10.2261
ความรู้	-10.2262
▁Jones	-10.2271
eg	-10.2273
▁42	-10.2274
▁Is	-10.2275
ps	-10.2276
ริก	-10.2276
▁content	-10.228
ล์	-10.228
▁ได้รับ	-10.2281
ตนเอง	-10.2282
ลัทธิ	-10.2283
▁Michigan	-10.2283
rat	-10.2285
ศัตรู	-10.2286
▁combat	-10.2288
▁Chi	-10.2292
▁Ab	-10.2294
ลุ	-10.2294
เอล	-10.2296
มีเป้าหมายเพื่อ	-10.2297
▁Par	-10.2305
บริหาร	-10.2305
▁ทั้งนี้	-10.2309
▁value	-10.2311
สากล	-10.2316
▁kind	-10.2316
ระยะ	-10.2321
▁Latin	-10.2321
▁Fort	-10.2324
▁energy	-10.2325
let	-10.2325
▁royal	-10.2329
ในการแข่งขัน	-10.2329
สัม	-10.2331
ออน	-10.2331
▁ultimate	-10.2332
▁bring	-10.234
63	-10.2341
สต์	-10.2341
ข้าพเจ้า	-10.2342
๙	-10.2343
สาธารณรัฐ	-10.2347
ศิลา	-10.2347
ผา	-10.2351
▁marriage	-10.2351
การปฏิรูปจาก	-10.2353
อย่างมาก	-10.2354
ในยุค	-10.2355
и	-10.2358
▁draft	-10.236
ชั้นถัด	-10.2361
▁ซึ่งต้องรอ	-10.2361
▁makes	-10.2365
รถไฟ	-10.2366
ส่งเสริม	-10.2367
ครอง	-10.2368
▁และพลเมือง	-10.237
▁inter	-10.237
หวัง	-10.237
เจอร์	-10.2372
สัญญาณ	-10.2374
▁district	-10.2375
วัฒน์	-10.2377
▁describe	-10.238
นำมา	-10.2382
cha	-10.2386
▁Ed	-10.239
ตระกูลสูงศักดิ์	-10.2397
ซิงเกิล	-10.2399
เจดีย์	-10.2405
everal	-10.2407
ระหว่างคนใน	-10.2408
เทียน	-10.2412
ชั่น	-10.2413
▁couple	-10.2415
▁remain	-10.2417
การล้างแค้น	-10.242
ably	-10.2422
แปล	-10.2427
▁Mexico	-10.2428
ในขณะนั้น	-10.243
▁Committee	-10.2439
directly	-10.2441
▁education	-10.245
▁books	-10.2454
เรื่องสิทธิในการ	-10.2455
จำหน่าย	-10.2456
▁call	-10.2459
▁cross	-10.246
▁financial	-10.2465
ice	-10.2467
=2	-10.2467
▁maintain	-10.2473
ill	-10.2473
นิว	-10.2473
แก้ไขความขัดแย้ง	-10.2475
▁ประเภท	-10.2475
▁stone	-10.2476
▁Paris	-10.2476
▁movie	-10.2476
ants	-10.2485
ทางสังคมโดยเฉพาะ	-10.2486
กฎหมายเพื่อ	-10.2489
เชื่อม	-10.2496
org	-10.2499
สวรรค์	-10.25
▁พระบาทสมเด็จพระ	-10.2503
net	-10.2504
ound	-10.2505
▁matches	-10.2509
9"|	-10.2511
เกร	-10.2514
81	-10.2518
เสนอ	-10.252
▁แต่ไม่ได้มีส่วน	-10.2523
▁effort	-10.2524
▁Ad	-10.2525
▁traffic	-10.2528
สุนทร	-10.2528
▁Ten	-10.254
ก่อตั้งสถาบัน	-10.2541
▁contact	-10.2542
▁55	-10.2542
▁ฝ่าย	-10.2543
๔	-10.2545
▁นครรัฐ	-10.2546
ves	-10.2548
▁ในช่วงแรก	-10.2549
รหัส	-10.2551
▁Wrestling	-10.2552
▁constructed	-10.2554
▁read	-10.2556
64	-10.2556
qui	-10.2558
ระบุว่า	-10.2558
▁ตอนที่	-10.257
ภูเขา	-10.2572
ศพ	-10.2573
▁ability	-10.2576
▁annual	-10.2578
iz	-10.2581
▁System	-10.2585
งา	-10.2589
รวบรวม	-10.259
กันระหว่างตระกูล	-10.259
gue	-10.2591
ระยะเวลา	-10.2591
▁สาขาวิชา	-10.2593
▁47	-10.2594
▁2545	-10.2594
tu	-10.2596
▁tax	-10.2596
การทำ	-10.2599
รัตน	-10.26
▁สมัย	-10.2601
68	-10.2604
กลับไป	-10.2605
ร้อน	-10.2616
▁ตัวละคร	-10.262
ec	-10.2621
▁source	-10.2624
และเลิกพึ่งพา	-10.2629
ในระดับ	-10.263
▁ครั้น	-10.2633
▁question	-10.2636
▁nearby	-10.2637
▁bi	-10.2637
ุลาการของรัฐ	-10.2643
zi	-10.2646
หนึ่งใน	-10.2648
▁Little	-10.265
ึ่งอำนาจต	-10.2658
▁hold	-10.266
yl	-10.2664
อันดับที่	-10.2666
▁Mr	-10.2669
car	-10.2673
ให้ทุกฝ่ายหันมาพ	-10.2677
ries	-10.2677
▁Fa	-10.268
หนี	-10.268
▁oil	-10.2683
▁บุคคลที่	-10.2686
ยูแพทริได	-10.2689
▁fall	-10.2689
62	-10.2689
ผู้ได้รับเครื่อง	-10.269
ane	-10.2692
▁mission	-10.2692
สถิติ	-10.2694
amp	-10.2698
▁คณะ	-10.2698
▁presented	-10.2698
▁join	-10.27
▁กรุงเทพมหานคร	-10.2701
▁1984	-10.2704
▁เด	-10.2704
▁highly	-10.2721
tt	-10.2723
▁meaning	-10.2725
▁reduced	-10.2725
▁ซึ่งรับ	-10.2727
▁visit	-10.2728
▁44	-10.2729
ery	-10.2734
เรื่องราว	-10.2739
▁เรา	-10.2739
back	-10.274
▁ไอ	-10.2743
▁กฎหมายของดราโก	-10.2744
▁Land	-10.2747
รัส	-10.2749
ที่เหลือรอดมา	-10.2751
ik	-10.2751
บัณฑิต	-10.2751
ในงาน	-10.2753
มีแค่ส	-10.2756
▁621	-10.276
▁award	-10.276
โดยทั่วไป	-10.2762
ผู้ป่วย	-10.2763
.1	-10.2766
่วนของกฎหมายอาญา	-10.2766
▁Academy	-10.2771
ทฤษฎี	-10.2772
สุร	-10.2774
86	-10.2777
▁super	-10.2787
▁Scotland	-10.2788
▁inside	-10.2792
21/0	-10.2792
เจ้าหญิง	-10.2793
▁Yu	-10.2795
ธิ	-10.2796
เน้น	-10.2802
▁จึงได้	-10.2804
ini	-10.2806
ออฟ	-10.2808
▁means	-10.2814
▁tried	-10.2816
▁ending	-10.2816
▁Sha	-10.2817
แหล่ง	-10.2819
▁Madonna	-10.2824
เกาหลีใต้	-10.2824
▁twenty	-10.2826
▁defense	-10.2827
▁engine	-10.2829
▁64	-10.2831
▁enter	-10.2833
ual	-10.2834
คนหนึ่ง	-10.2836
▁transferr	-10.2836
▁consider	-10.2837
▁โก	-10.2838
▁accepted	-10.2844
ความสัมพันธ์	-10.2845
มาใช้ในปี	-10.2854
▁Their	-10.286
▁1985	-10.2861
▁specific	-10.2864
▁stating	-10.2865
▁เขาได้	-10.2867
▁ทา	-10.2873
ef	-10.2877
ew	-10.2879
▁ฮา	-10.2879
รี่	-10.2882
ปรับปรุง	-10.2885
ทองคำ	-10.2887
รายละเอียด	-10.289
รับเชิญ	-10.2891
▁Young	-10.2897
ประโยชน์	-10.29
ปัญญา	-10.2901
แคว้น	-10.2901
▁รอบ	-10.2902
ins	-10.2906
▁Williams	-10.2908
ไข่	-10.2909
▁2540	-10.2914
Δράκων	-10.2916
บุก	-10.2919
▁1943	-10.2922
ของดราโก	-10.2932
▁Catholic	-10.2938
ประสูติ	-10.2939
เลน	-10.2939
▁meant	-10.294
ug	-10.2942
▁และการ	-10.2951
ash	-10.2952
ในยุคแรกเป็น	-10.2954
▁executive	-10.2963
▁รัก	-10.2964
▁Joseph	-10.2965
ซาร์	-10.2967
แอร์	-10.2968
ลึก	-10.2969
▁morning	-10.2975
เอช	-10.2976
▁ภายหลัง	-10.2981
ula	-10.2983
ฟิลิปปินส์	-10.2984
▁Louis	-10.2985
ทั้งสิ้น	-10.2991
เนื้อหา	-10.2997
กฎหมายของเอเธนส์	-10.2999
▁focus	-10.3002
ock	-10.3002
แต่งตั้ง	-10.3003
ร้อย	-10.3005
แบ	-10.3007
▁Law	-10.3009
หมาย	-10.3012
▁wall	-10.3014
▁2566	-10.3017
สิ้น	-10.3019
สุวรรณ	-10.3021
▁Operation	-10.3022
เซนต์	-10.3024
▁lot	-10.3026
พร้อมกับ	-10.3026
โห	-10.303
51	-10.3033
▁Mu	-10.3033
ax	-10.3044
over	-10.3046
▁ลูก	-10.3047
sch	-10.3047
and	-10.3049
ก็เสื่อมลง	-10.3049
ability	-10.305
▁Stephen	-10.3051
๕	-10.3051
▁machine	-10.3053
▁ประตู	-10.3054
fi	-10.3055
เมื่อดราโก	-10.3057
▁Ru	-10.3059
▁Song	-10.306
เดน	-10.3066
▁guest	-10.3067
มารดา	-10.3067
ถิ่น	-10.3068
▁2543	-10.3069
โว	-10.307
▁numbers	-10.3072
▁Games	-10.3072
▁Southern	-10.3073
รวมถึง	-10.3077
▁History	-10.3078
▁Festival	-10.3081
▁Home	-10.3081
▁Creek	-10.3084
▁Mon	-10.3086
▁แต่อำนาจนี้	-10.3086
▁responsible	-10.3095
▁managed	-10.3095
ซึ	-10.3096
▁Republic	-10.3097
ศิลป์	-10.3097
ชะ	-10.3101
ric	-10.3102
▁46	-10.3102
อุณหภูมิ	-10.3104
สำนัก	-10.3105
และการใช้กฎหมาย	-10.3106
ปอเลมาร์ค	-10.3109
▁dropped	-10.311
57	-10.3112
ทาน	-10.3113
ria	-10.3115
ble	-10.3118
▁reason	-10.3119
▁วงศ์	-10.3125
а	-10.3127
อำนาจทางศาล	-10.3128
▁kept	-10.3128
เบล	-10.3129
▁ช	-10.3129
จำกัด	-10.3132
เรียง	-10.3132
▁variety	-10.3132
▁ห้อง	-10.3133
▁floor	-10.3139
istic	-10.3141
วางจำหน่าย	-10.3146
อธิบาย	-10.3147
▁square	-10.3147
ยังผูกขาดการใช้	-10.3148
ในยุคอาร์เคอิก	-10.3152
king	-10.3153
กาล	-10.3154
เยาวชน	-10.3155
บทบาท	-10.3158
▁ล้าน	-10.3159
▁theme	-10.3167
91	-10.3168
▁Night	-10.3171
ตรวจ	-10.3173
▁Bra	-10.3173
ว์	-10.3174
เป้าหมาย	-10.3176
▁depict	-10.3178
▁Bre	-10.3181
▁พวกชนชั้นสูง	-10.3181
▁สำนักงาน	-10.3181
09	-10.3183
หวาน	-10.3185
▁levels	-10.3185
▁คำนาม	-10.3186
wi	-10.3186
▁Parliament	-10.3187
ปกครองในระบอบ	-10.3188
ออกเป็น	-10.3192
▁Infantry	-10.3196
84	-10.3198
▁43	-10.3199
▁championship	-10.32
อำนาจปกครองแล้ว	-10.3201
สิน	-10.3203
▁WWE	-10.3207
การ์ตูน	-10.321
ปล่อย	-10.3211
ซะ	-10.3212
เอาชนะ	-10.3213
บริหารระดับสูง	-10.322
▁sex	-10.3221
▁วิ	-10.3225
▁suit	-10.3226
▁บ	-10.3226
▁names	-10.3226
▁rain	-10.3232
▁Ja	-10.3233
ดารา	-10.3234
▁hospital	-10.3241
rin	-10.3242
▁Service	-10.3243
ปลูก	-10.3244
บิดา	-10.3244
อย่างรวดเร็ว	-10.3245
ดำเนิน	-10.3247
ku	-10.3253
▁records	-10.3254
ทุ	-10.3255
▁marked	-10.3258
ปลายศตวรรษที่	-10.326
▁display	-10.326
ei	-10.326
▁metres	-10.3263
▁wing	-10.3266
ram	-10.3268
โบสถ์	-10.327
▁regard	-10.3274
▁ระหว่าง	-10.3275
lor	-10.3279
▁inches	-10.3282
▁gas	-10.329
▁w	-10.329
▁represent	-10.3295
▁Eupatridae	-10.3299
▁ring	-10.3299
ทอ	-10.3302
▁เค	-10.3304
▁multiple	-10.3307
ible	-10.3309
อง	-10.3312
▁efforts	-10.3312
tre	-10.3313
โปรดเกล้าฯ	-10.3314
ก็มี	-10.3317
▁n	-10.3317
Εὐπατρίδαι	-10.3319
▁Jim	-10.3319
โตเกียว	-10.3322
เป็นสมาชิก	-10.3329
▁ดังนี้	-10.3329
▁tower	-10.3332
าราม	-10.334
ราง	-10.3343
е	-10.3345
▁squadron	-10.3346
ภาษาไทย	-10.3348
ประธาน	-10.3349
ที่ร่วมก่อตั้ง	-10.335
▁yard	-10.335
ไว้ใน	-10.3351
▁figure	-10.3351
▁ศูนย์	-10.3354
▁primari	-10.3354
▁begins	-10.3356
▁2538	-10.336
▁showed	-10.3361
act	-10.3364
can	-10.3367
▁rule	-10.3367
เปลี่ยนแปลง	-10.337
▁quality	-10.337
▁อะ	-10.3373
▁Boston	-10.3373
ได้ว่า	-10.3373
ทรัพย์	-10.3374
▁Captain	-10.3376
▁หรือที่เรียกรวม	-10.3377
ปีก	-10.3377
▁words	-10.3378
๐	-10.3379
นาค	-10.3383
กฎ	-10.3384
of	-10.3388
▁Pu	-10.3388
ภายหลัง	-10.3388
พี่น้อง	-10.339
▁Col	-10.3393
ทิ้ง	-10.3394
ได้เป็น	-10.3398
▁Pat	-10.3398
▁broke	-10.3399
▁Football	-10.3404
แหลม	-10.3405
vis	-10.3405
72	-10.3409
▁65	-10.3409
FF	-10.3411
▁Ki	-10.3412
▁vi	-10.3412
▁ซึ่งอาจ	-10.3412
บรรจุ	-10.3413
▁Institute	-10.3414
เลข	-10.3414
บรรดาตระกูล	-10.3414
เลิก	-10.3417
ร้าน	-10.3419
ever	-10.3425
▁formation	-10.3426
▁News	-10.3428
ทันที	-10.3428
ของโฮเมอร์	-10.3429
▁featuring	-10.3429
ธร	-10.3429
▁notes	-10.3435
town	-10.3438
าจากหนึ่งใน	-10.3443
▁Far	-10.3448
▁สโมสร	-10.3451
ความคิด	-10.3451
ใช้งาน	-10.3453
▁ได้จะต้องม	-10.3455
็ง	-10.3455
มิตร	-10.3457
ิน	-10.3458
▁presence	-10.3463
มาเป็น	-10.3463
71	-10.3464
▁criticiz	-10.3465
▁positions	-10.3467
▁พระองค์เจ้า	-10.3471
▁Out	-10.3475
▁Mer	-10.3475
ยง	-10.3478
▁ฯ	-10.3481
ther	-10.3481
ดำรงค์ตำแหน่ง	-10.3483
▁Fe	-10.3485
▁Chief	-10.3488
▁foreign	-10.3489
ในชื่อ	-10.3489
97	-10.3492
lic	-10.3492
▁secret	-10.3493
คอร์	-10.3494
▁beat	-10.3495
ศาลา	-10.3496
▁starting	-10.3496
▁Its	-10.3497
▁portion	-10.3499
lit	-10.35
การทหารสูงสุด	-10.3501
▁seat	-10.3501
่า	-10.3501
เล่ม	-10.3501
oid	-10.3504
▁Asia	-10.3505
พันธ์	-10.3505
ผู้นำ	-10.3506
▁federal	-10.3509
อาศัย	-10.351
49	-10.3513
▁viewers	-10.3514
ต้องอาศัย	-10.3516
ออร์	-10.3519
▁เพื่อให้	-10.3521
ข้าราชการ	-10.3521
ns	-10.3521
▁follow	-10.3522
ox	-10.3523
ทางประวัติศาสตร์	-10.3525
แต่ผู้จะ	-10.3525
ala	-10.3528
ky	-10.353
พระพุทธรูป	-10.3532
มีผลงาน	-10.3532
▁Light	-10.3534
▁1983	-10.3538
5%	-10.3539
▁contrast	-10.354
▁para	-10.3543
πολέμαρχος	-10.3547
ลอย	-10.3547
▁cases	-10.3548
▁Major	-10.3548
▁ก่อน	-10.3548
ช่วยเหลือ	-10.3551
▁ฤดูกาล	-10.3551
รัฐสภา	-10.3552
▁sign	-10.3554
สด	-10.3556
▁disease	-10.356
สมบัติ	-10.3561
▁winter	-10.3565
▁กรม	-10.3565
ขับ	-10.3567
und	-10.3568
บ่อ	-10.3577
▁kg	-10.3578
▁Before	-10.358
▁receive	-10.3585
og	-10.3589
บุคคลที่เกิดในปี	-10.3589
▁escape	-10.3592
ปริมาณ	-10.3593
▁อาร์	-10.3594
▁600	-10.3596
ฮี	-10.3598
▁enemy	-10.3603
▁extreme	-10.3605
set	-10.3605
หมอ	-10.3608
du	-10.3609
73	-10.3611
mit	-10.3611
▁Not	-10.3611
เรือน	-10.3618
▁และมีผู้นำทาง	-10.3628
▁piece	-10.3629
▁write	-10.3635
ที่สามารถ	-10.3638
▁Will	-10.3638
หมู่เกาะ	-10.3638
▁1982	-10.3639
อารมณ์	-10.3643
ἄρχων	-10.3644
▁property	-10.3647
▁flag	-10.3648
ยังเป็น	-10.3649
▁eye	-10.365
▁52	-10.365
ning	-10.365
ราชา	-10.3652
▁Hol	-10.3653
▁Part	-10.3656
สถานะ	-10.3657
▁ธง	-10.3659
หมู่	-10.366
▁เกิดเมื่อวันที่	-10.366
ความเร็ว	-10.3662
ครบ	-10.3663
▁Republican	-10.3664
▁Val	-10.3666
โอกาส	-10.3666
▁มัน	-10.3666
▁greater	-10.3668
▁712	-10.367
โดยใช้	-10.367
ii	-10.367
▁Harrison	-10.3673
▁schools	-10.3673
uk	-10.3675
ธา	-10.3676
▁stories	-10.3677
▁Manchester	-10.3677
▁ร	-10.3677
82	-10.368
▁Because	-10.3681
ของรัฐ	-10.3683
ยุคอาร์เคอิก	-10.3685
โดยการ	-10.3685
▁houses	-10.3686
▁Good	-10.3689
ผู้คน	-10.3693
เกี่ยวข้องกับ	-10.3695
▁เกม	-10.3696
ัม	-10.3699
▁Battalion	-10.3699
วิหาร	-10.37
▁risk	-10.3702
ought	-10.3703
▁independent	-10.3704
หลง	-10.3707
qua	-10.3709
▁Gar	-10.3715
ไม่ใช่	-10.3719
▁1968	-10.372
หอ	-10.3726
▁concluded	-10.3728
แดน	-10.3729
▁things	-10.3729
▁encounter	-10.3734
เท้า	-10.3735
ix	-10.3735
▁extensive	-10.3736
ฐ	-10.3738
ex	-10.3738
▁performances	-10.3738
▁||||	-10.3739
ped	-10.374
ที่มีชื่อเสียง	-10.3743
ob	-10.3745
stone	-10.3747
▁prominent	-10.375
イ	-10.3751
เข้าด้วยกัน	-10.3758
▁search	-10.3761
▁Blue	-10.3763
▁develop	-10.3768
▁Boy	-10.377
▁farm	-10.3771
▁tournament	-10.3771
บอล	-10.3772
ปุ	-10.3774
▁valign	-10.3774
สุดของเมืองที่	-10.3776
▁ไร่	-10.3778
เลือกตั้ง	-10.3778
ซ่า	-10.378
▁claim	-10.3782
▁More	-10.3783
ไบ	-10.3785
เวิลด์	-10.3789
▁actually	-10.3789
▁historical	-10.379
ที่เขา	-10.3792
ole	-10.3796
▁1979	-10.3796
ก็ยุติลง	-10.3798
การปกครองโดยผู้	-10.3798
▁เปลี่ยนไปเป็น	-10.38
▁หลังจากที่	-10.3802
๋	-10.3803
▁observed	-10.3806
ตัดสิน	-10.3814
▁trial	-10.3816
▁sense	-10.3817
ag	-10.3817
▁vocals	-10.3819
ต่อสู้	-10.382
▁ร่วมกับ	-10.3821
▁mind	-10.3822
วอ	-10.3826
คะ	-10.3827
▁threat	-10.3828
je	-10.3829
ทั่ว	-10.383
▁การปกครองโดย	-10.3833
▁What	-10.3833
▁your	-10.3835
บุรี	-10.3836
▁honor	-10.3837
ในแต่ละ	-10.384
เซ็น	-10.384
▁guard	-10.3846
▁forms	-10.3846
▁murder	-10.3847
การประกวด	-10.3847
▁strength	-10.3847
▁Brigade	-10.3848
ski	-10.3849
▁คณะกรรมการ	-10.3849
กลิ่น	-10.3851
lus	-10.3851
74	-10.3851
การแข่งขันกีฬา	-10.3853
ned	-10.3853
พิษ	-10.3854
▁ยูแพทริได	-10.3856
í	-10.3858
▁kill	-10.3859
ลดลง	-10.386
▁stand	-10.386
▁คำว่า	-10.386
ทูต	-10.3863
▁setting	-10.3864
รักษ์	-10.3865
ฮอ	-10.3868
www	-10.387
▁reference	-10.3873
ประเพณี	-10.3873
ผู้ใช้	-10.3878
หรือไม่	-10.3881
▁actor	-10.3881
▁owned	-10.3882
▁Cre	-10.3884
โฆษณา	-10.3884
▁rating	-10.3884
ลำดับที่	-10.3885
="2"|	-10.3885
▁r	-10.3885
ตัวอย่าง	-10.3889
pic	-10.3891
▁Bank	-10.3901
▁onto	-10.3907
▁paid	-10.3908
▁titled	-10.3913
▁job	-10.3914
▁Ya	-10.392
ีย	-10.3924
แห่งนี้	-10.3924
mor	-10.3924
ก็ตาม	-10.3932
จะใช้	-10.3934
พนักงาน	-10.3935
▁Italy	-10.3935
▁พอถึงช่วง	-10.3939
▁companies	-10.394
โอลิมปิก	-10.3942
▁คือราว	-10.3942
การเปลี่ยนแปลง	-10.3942
▁governor	-10.3947
basileus	-10.3949
▁animals	-10.3949
▁โท	-10.3951
หนุ่ม	-10.3952
เว็บไซต์	-10.3952
94	-10.3954
my	-10.3957
▁Middle	-10.3958
ル	-10.3959
▁ปอเลมาร์ค	-10.3961
ยาก	-10.3963
▁Regiment	-10.3968
relatively	-10.3969
▁parents	-10.3971
ประชา	-10.3974
▁๕	-10.3978
▁appeal	-10.3979
▁นา	-10.3979
▁Joe	-10.3983
▁แม้	-10.3983
work	-10.3984
▁Shi	-10.3985
▁founded	-10.3985
บาซิเลวส์	-10.3991
off	-10.3992
AC	-10.3994
อยาก	-10.3995
lon	-10.3996
dd	-10.3997
ect	-10.3999
▁divided	-10.4006
▁invasion	-10.4006
▁slightly	-10.4015
▁พรรค	-10.4018
▁tradition	-10.4018
ตุ	-10.4019
ภักดี	-10.4021
▁acting	-10.4021
ura	-10.4021
93	-10.4022
▁1939	-10.4023
จอ	-10.4026
ชาวบ้าน	-10.4027
ฮ่องกง	-10.4034
59	-10.4034
▁powerful	-10.4038
กำ	-10.404
เครือข่าย	-10.404
▁say	-10.4042
ทั้งคู่	-10.4042
▁Pr	-10.4045
ack	-10.405
ภารกิจ	-10.4051
ติก	-10.4053
๓	-10.4053
แพ	-10.4055
▁Ireland	-10.4061
ครัวเรือน	-10.4063
ath	-10.4065
proved	-10.4069
บัตร	-10.407
▁1967	-10.4071
คำสั่ง	-10.4076
เทศบาล	-10.4076
วรรณกรรม	-10.4077
▁Han	-10.4078
bin	-10.4083
selling	-10.4083
รู้จัก	-10.4089
100	-10.409
แก้	-10.4091
ที่เกิดขึ้น	-10.4093
เชิญ	-10.4094
76	-10.4096
▁maximum	-10.4098
ต้า	-10.4101
board	-10.4103
▁1972	-10.4103
▁Dan	-10.4107
▁writers	-10.4109
วิล	-10.4111
มาตรา	-10.4111
▁mis	-10.4114
▁comic	-10.4115
▁label	-10.4116
อเมริกา	-10.4116
shire	-10.4116
▁120	-10.4118
sort	-10.4122
ต้นไม้	-10.4122
ใช้เป็น	-10.4126
▁innings	-10.4127
จัดการ	-10.4131
ok	-10.4137
ปลายของศตวรรษที่	-10.4152
ช้า	-10.4157
เอน	-10.4157
ยุคเริ่มต้น	-10.4158
▁today	-10.4159
▁fan	-10.4159
▁society	-10.4161
▁green	-10.4163
▁trans	-10.4165
cher	-10.4166
▁meet	-10.4167
นี้มี	-10.4173
ความเชื่อ	-10.4176
เอาในตอน	-10.4176
คม	-10.4178
▁horse	-10.4179
การจัดการ	-10.4179
ทร	-10.418
▁incident	-10.418
▁Dutch	-10.418
ศตวรรษที่	-10.4182
นักบุญ	-10.4182
ึ	-10.4183
water	-10.4185
CC	-10.4186
▁2022	-10.4187
เชื้อ	-10.4188
▁draw	-10.4198
ี่มีอำนาจโดดเด่น	-10.4199
▁Four	-10.4202
ระเบียบ	-10.4203
▁attempts	-10.4203
▁drive	-10.4206
▁sides	-10.4207
▁task	-10.4214
▁เบ	-10.4218
▁era	-10.4218
ประสาท	-10.422
nu	-10.4221
ายมาเป็นเมืองท	-10.4221
ฝึก	-10.4225
มังกร	-10.4226
ัญ	-10.4227
บัน	-10.4228
▁designated	-10.423
▁แต่เริ่มกล	-10.4236
ขอบ	-10.4237
▁ภาพ	-10.4241
▁combined	-10.4243
▁Avenue	-10.4244
พระที่นั่ง	-10.4245
ท่าอากาศยาน	-10.4246
▁ชนะ	-10.4247
เมืองหลวง	-10.4248
000	-10.4249
▁Victoria	-10.4249
var	-10.425
▁อุ	-10.4251
เทศบาลตำบล	-10.4251
บรรดา	-10.4253
เคมี	-10.4253
▁struck	-10.4253
▁colour	-10.4253
▁thousand	-10.4255
79	-10.4255
▁becomes	-10.4256
เนเธอร์แลนด์	-10.4258
▁1964	-10.4258
▁กา	-10.426
ปรา	-10.4262
แท	-10.4263
ไตร	-10.4264
▁reform	-10.427
▁birth	-10.4271
▁1981	-10.4273
คุณภาพ	-10.4274
▁Though	-10.4274
ping	-10.4274
เหตุผล	-10.4275
ระยะทาง	-10.4276
▁split	-10.4276
||||	-10.4277
▁Hy	-10.4278
คิว	-10.4281
ลีย์	-10.4283
cent	-10.4284
อิสราเอล	-10.4284
▁บุญ	-10.4285
ก้า	-10.4286
tal	-10.4291
ในอดีต	-10.4293
▁capture	-10.4298
▁ยก	-10.4299
ฮั	-10.4302
83	-10.4304
ลำตัว	-10.4304
▁calling	-10.4306
▁Daniel	-10.4309
52	-10.4309
br	-10.4311
แอฟริกา	-10.4311
▁charge	-10.4312
lie	-10.4312
▁theory	-10.4316
▁alongside	-10.432
ปริ	-10.4323
ร็อก	-10.4325
▁policy	-10.4326
โดยตรง	-10.4326
▁1975	-10.4329
▁Up	-10.4332
หม่อม	-10.4336
▁Hollywood	-10.4337
รถยนต์	-10.4337
▁care	-10.4337
▁recent	-10.4342
▁host	-10.4343
▁Book	-10.4347
ลงไป	-10.4347
ye	-10.4348
sought	-10.4352
▁collapse	-10.4352
▁Cambridge	-10.4355
ของชาวกรีกมา	-10.4356
▁Fleet	-10.4358
ำคัญทางวัฒนธรรม	-10.4359
ได้มีการ	-10.4359
และการเมืองในโลก	-10.4361
▁Duke	-10.4363
▁2541	-10.4365
นิกาย	-10.4366
ไ	-10.437
สถาปนา	-10.4373
รอด	-10.4379
▁Hurricane	-10.4381
▁visual	-10.4381
ผลิตภัณฑ์	-10.4382
▁แล	-10.4384
▁Mill	-10.4384
Ma	-10.4384
▁Tech	-10.4385
ข้า	-10.4388
ติดกับ	-10.439
▁treatment	-10.439
sk	-10.4392
▁Valley	-10.4393
eng	-10.4394
▁railway	-10.4395
ue	-10.4399
▁nominated	-10.4401
ด่าน	-10.4403
▁ในการ	-10.4404
เมืองที่มีความส	-10.4406
ล้าน	-10.4411
▁treat	-10.4417
กำแพง	-10.4419
▁เอเธนส์เป็น	-10.4419
การออกแบบ	-10.4421
▁activity	-10.4421
แอน	-10.4424
ภัย	-10.4426
ยกเลิก	-10.4429
▁Official	-10.4429
par	-10.4432
เทน	-10.4434
▁aid	-10.4437
▁inch	-10.4439
ตามที่	-10.4439
▁organization	-10.4439
ความรัก	-10.4441
ภรรยา	-10.4442
ให้บริการ	-10.4443
pro	-10.4444
จ่าย	-10.4445
ip	-10.4452
▁weather	-10.4452
fo	-10.4453
▁naval	-10.4454
▁ma	-10.4458
กซ์	-10.4458
▁1969	-10.4459
แรกของ	-10.4459
▁succeed	-10.4463
การรักษา	-10.4468
โฟ	-10.4469
เทว	-10.447
อัตรา	-10.4472
▁true	-10.4472
▁1974	-10.4472
▁1976	-10.4474
qu	-10.4479
▁confirmed	-10.4479
▁1971	-10.4482
▁gained	-10.4485
▁promoted	-10.4486
งู	-10.4488
bra	-10.4488
▁image	-10.4489
▁widely	-10.4493
▁51	-10.4493
ในจังหวัด	-10.4497
แ	-10.4501
ซ้ำ	-10.4502
แถว	-10.4505
▁husband	-10.4507
ick	-10.4508
สัญลักษณ์	-10.4508
ified	-10.451
พระโอรส	-10.4512
ของชาว	-10.4517
▁800	-10.4519
ไพ	-10.452
▁greatest	-10.4524
หนู	-10.4526
▁Ocean	-10.4526
ld	-10.453
นอร์	-10.4537
้อ	-10.4538
▁reaching	-10.4539
เวียง	-10.454
หัก	-10.4541
▁explained	-10.4543
รายชื่อ	-10.4544
ยังไม่	-10.4546
▁landing	-10.4548
▁Post	-10.4549
▁hir	-10.455
▁Com	-10.4554
นครรัฐเอเธนส์	-10.456
▁Ham	-10.4562
▁native	-10.4563
▁Dis	-10.4563
▁Mal	-10.4563
ได้ใน	-10.4571
▁judge	-10.4572
▁ข้อ	-10.4575
▁vote	-10.4578
ในด้าน	-10.458
▁surrounding	-10.458
อย่างไร	-10.4583
▁Korean	-10.4584
ร่า	-10.4588
▁passing	-10.4589
69	-10.4589
▁table	-10.4594
▁counter	-10.4597
▁Civil	-10.4598
วาระ	-10.46
ฝัน	-10.4601
แบร์	-10.4602
วิช	-10.4603
mal	-10.4606
▁actions	-10.4608
▁Free	-10.4614
หลักของ	-10.4614
▁Short	-10.4615
art	-10.4619
แจ	-10.462
▁artists	-10.462
▁sixth	-10.462
▁formal	-10.4625
▁county	-10.4625
รัฐมนตรี	-10.4626
graph	-10.4627
▁พวกเขา	-10.4628
▁chance	-10.4632
ไปถึง	-10.4639
▁uses	-10.4639
ification	-10.4639
บัง	-10.4645
เดียวกับ	-10.4651
หลายคน	-10.4662
เข้าร่วมแข่งขัน	-10.4664
หน้าที่	-10.4665
▁rise	-10.4666
▁officials	-10.4672
▁District	-10.4673
▁share	-10.4677
ero	-10.468
ตั้งอยู่	-10.468
ฟุ	-10.4682
▁choice	-10.4686
ค่อนข้าง	-10.4687
ซอ	-10.4689
▁sexual	-10.4692
hy	-10.4692
scoring	-10.4695
โชว์	-10.4701
▁lap	-10.4704
โดน	-10.4704
ขึ้นเป็น	-10.4705
▁คุณ	-10.4707
▁expressed	-10.4708
▁protect	-10.4708
▁sources	-10.4708
▁shortly	-10.4709
▁http	-10.471
Q	-10.4712
▁สถานี	-10.4714
▁physical	-10.4715
▁Government	-10.4721
ไปแล้ว	-10.4722
เชียง	-10.4723
ถ้ำ	-10.4729
ประดับ	-10.4732
vent	-10.4733
แชมป์	-10.4734
▁2021	-10.4734
▁progress	-10.4734
▁begin	-10.4738
แขวง	-10.4739
▁lo	-10.4739
มีผู้	-10.474
▁soundtrack	-10.474
อนุ	-10.474
uck	-10.4741
ประชุม	-10.4747
อุป	-10.4748
illa	-10.4751
▁Upon	-10.4751
▁Ken	-10.4751
▁fuel	-10.4751
แก้ไข	-10.4752
mus	-10.4754
▁จักรพรรดิ	-10.4757
▁Bu	-10.4761
▁bit	-10.4762
ดาร์	-10.4766
เปอร์	-10.4769
ena	-10.477
หนังสือพิมพ์	-10.477
▁attract	-10.4771
▁Field	-10.4777
▁stay	-10.4784
▁1973	-10.4785
เมน	-10.4785
▁student	-10.4789
▁studies	-10.479
โดยเฉพาะ	-10.479
▁medal	-10.4798
โปร	-10.4799
▁หมายเหตุ	-10.48
о	-10.4801
ชนะเลิศ	-10.4803
▁ice	-10.4804
▁พุทธศักราช	-10.4805
▁Carolina	-10.4809
▁agreement	-10.4809
▁matter	-10.4811
▁1918	-10.482
▁identified	-10.4821
ว่าจะ	-10.4824
เงา	-10.4826
▁gain	-10.4828
ถือเป็น	-10.483
▁coming	-10.4833
▁edge	-10.4834
ท้าว	-10.4835
▁residents	-10.4837
ประชากรจำนวนมาก	-10.4837
▁k	-10.4837
▁Fi	-10.4837
▁thick	-10.4838
▁says	-10.4838
บะ	-10.484
▁Age	-10.4841
▁cities	-10.4844
ement	-10.4846
แค่	-10.4846
her	-10.4847
lum	-10.4849
ของพระเจ้า	-10.485
ใช้เวลา	-10.485
บูชา	-10.4851
▁Northern	-10.4852
▁sail	-10.4854
ลงมา	-10.4854
allowing	-10.4858
ยุทธ	-10.4858
▁reign	-10.4859
▁Power	-10.4872
89	-10.4874
eb	-10.4876
สิ่งมีชีวิต	-10.4876
รัช	-10.4877
▁plays	-10.4878
▁cell	-10.488
สร้างขึ้น	-10.4882
▁older	-10.4883
มาน	-10.4884
▁tail	-10.4888
โลกครั้งที่สอง	-10.489
ชาวอังกฤษ	-10.4893
▁Castle	-10.4899
▁tell	-10.4899
ama	-10.4902
▁artillery	-10.4907
▁1978	-10.4908
วุฒิ	-10.4909
▁height	-10.4909
เลอร์	-10.4913
▁1966	-10.4915
็	-10.4915
▁negative	-10.4915
–19	-10.4916
ภายใต้	-10.4918
tan	-10.4924
คาร์	-10.4925
คนอื่น	-10.4928
ของผู้	-10.4929
▁แต่ก็	-10.4933
oon	-10.4938
เวท	-10.4938
ight	-10.494
หนึ่งของ	-10.4942
ด้วยความ	-10.4942
รวมทั้ง	-10.4943
▁reaction	-10.4943
▁disc	-10.4944
▁drama	-10.4944
▁ต	-10.4945
▁van	-10.4948
hr	-10.4949
นด์	-10.4949
▁Order	-10.4949
เบน	-10.495
▁armor	-10.495
ans	-10.4956
▁Alexander	-10.4957
▁นอกจากนี้ก็	-10.4958
▁represented	-10.4959
▁failure	-10.496
heavily	-10.496
สร	-10.4964
▁ชนิด	-10.4964
ลัน	-10.4966
▁spread	-10.4968
ase	-10.4968
ทูล	-10.4969
ิดขึ้นได้เพราะมี	-10.4972
▁Andrew	-10.4976
▁alone	-10.4978
▁council	-10.4979
▁1965	-10.4981
อร	-10.4984
▁weapons	-10.4992
▁big	-10.4992
▁สิ่งเหล่านี้เก	-10.4993
mm	-10.4994
ยักษ์	-10.5004
bottom	-10.5004
โอะ	-10.5006
ภายนอก	-10.5008
cal	-10.5009
แบ่งเป็น	-10.501
TV	-10.5018
▁Fantasy	-10.502
▁Sta	-10.502
▁Bond	-10.5021
▁senior	-10.5023
▁steam	-10.5024
▁Christmas	-10.5027
พื้นฐาน	-10.5029
▁ahead	-10.5032
แน	-10.5035
▁Water	-10.5035
ยังต้องอาศัยการ	-10.5036
▁Arm	-10.5037
ฏ	-10.5043
aka	-10.5045
▁growth	-10.5046
▁รุ่น	-10.5047
ros	-10.5049
กรรมการ	-10.5052
.2	-10.5054
▁Governor	-10.506
▁injury	-10.5062
เผ่า	-10.5066
pr	-10.5069
▁paper	-10.5074
โปรตุเกส	-10.5077
▁หรือรูปทรง	-10.5078
▁Even	-10.5079
เครื่องมือ	-10.508
เข้าใจ	-10.5084
มงกุฎ	-10.5086
▁Dar	-10.5086
ชาวญี่ปุ่น	-10.5088
ā	-10.5089
ชิงแชมป์	-10.5089
พบกับ	-10.5093
hal	-10.5105
อิง	-10.5106
ผู้ใหญ่	-10.5107
’	-10.5108
อาศัยอยู่	-10.511
▁Radio	-10.5114
อวกาศ	-10.5121
▁contemporary	-10.5123
▁spring	-10.5127
เช่นความยาวของห	-10.5128
▁medical	-10.5128
โซน	-10.5129
▁strike	-10.513
▁เมื่อปี	-10.513
▁Polish	-10.513
▁Cal	-10.5131
ö	-10.5139
ความสามัคคีและ	-10.5139
น้อยกว่า	-10.5142
bar	-10.5142
ีมาตรฐานเดียวกัน	-10.5143
▁Wall	-10.5144
ments	-10.5146
▁Mil	-10.5148
▁equipment	-10.5149
▁Coast	-10.5156
▁computer	-10.5156
▁hair	-10.5158
▁End	-10.5158
ตั้งแต่ปี	-10.5162
▁Ju	-10.5164
ไม่เกิน	-10.5166
▁fired	-10.5169
ensis	-10.517
del	-10.5174
ฆ	-10.5174
ออนไลน์	-10.5175
น้อง	-10.5175
บัญชี	-10.5176
ที่ใช้ก็ต้องม	-10.5176
ความจริง	-10.5178
▁ha	-10.5178
▁ห	-10.5181
▁flood	-10.5184
▁trip	-10.5185
▁fine	-10.5185
▁Wilson	-10.5186
▁except	-10.5186
▁weight	-10.5186
ตอนที่	-10.5188
ฤทธิ์	-10.519
นักร้อง	-10.519
การพึ่งพากัน	-10.5193
เกาะกลุ่ม	-10.5193
▁finish	-10.5197
yo	-10.5198
▁Homer	-10.52
▁Studios	-10.5201
ฝึกหัดอย่างมา	-10.5203
▁Tu	-10.5205
▁statement	-10.5205
▁Ku	-10.5207
▁launch	-10.5208
▁เหตุการณ์	-10.521
สีดำ	-10.5211
▁ชุด	-10.5212
อัส	-10.5212
สาเหตุ	-10.5213
ปฏิเสธ	-10.5217
▁wicket	-10.5219
▁speech	-10.5223
▁People	-10.5224
มณี	-10.5224
สหภาพโซเวียต	-10.5232
▁rear	-10.5233
ในสงคราม	-10.5233
▁นก	-10.5234
ตัดสินใจ	-10.5237
ิก	-10.5238
ขอให้	-10.5239
ates	-10.524
▁problem	-10.5243
ความสามารถ	-10.5244
▁Mike	-10.5244
ス	-10.5244
tus	-10.5245
▁laid	-10.5245
โรงแรม	-10.5247
ะฮ์	-10.5247
เหมือนกับ	-10.5247
แปด	-10.525
▁systems	-10.5251
เกือบ	-10.5252
ในรูปแบบ	-10.5253
fr	-10.5253
▁Eastern	-10.5257
▁Sh	-10.5257
เร็ว	-10.5259
▁และยัง	-10.5264
cho	-10.5265
▁Jean	-10.5269
แบบฮอปไลต์	-10.5269
ลอนดอน	-10.527
▁struggle	-10.5271
ัย	-10.5272
din	-10.5273
▁Taylor	-10.5273
zo	-10.5273
สีเขียว	-10.5274
▁Elizabeth	-10.5276
▁acid	-10.5278
▁returning	-10.5279
มาแล้ว	-10.528
▁Gra	-10.5282
เข้าปะทะกัน	-10.5283
เหรียญ	-10.5286
ฉลอง	-10.5286
▁ภาค	-10.5287
และแปรขบวนทัพ	-10.5287
ราก	-10.5293
▁doing	-10.5295
มีประชากร	-10.5297
▁aired	-10.5297
▁เซนติเมตร	-10.5297
นัย	-10.5301
▁บาง	-10.5301
วาน	-10.5302
▁Admiral	-10.5303
ของพวกเขา	-10.5304
▁affected	-10.5304
เบา	-10.5305
ae	-10.5307
ตี้	-10.5312
และความ	-10.5312
▁crowd	-10.5315
cc	-10.5315
bor	-10.5316
▁Carl	-10.5319
ที่ดี	-10.532
๘	-10.5322
▁interchange	-10.5323
▁Bell	-10.5324
▁serious	-10.5324
▁committee	-10.5325
▁1977	-10.5329
▁Dun	-10.533
ทางการ	-10.533
เซล	-10.533
▁ฮิ	-10.5334
▁billion	-10.5335
▁2537	-10.5337
▁figures	-10.5345
▁visited	-10.5348
▁Mel	-10.5348
ดอกไม้	-10.5349
เคลื่อนขบวนทัพ	-10.5351
▁results	-10.5352
ลด์	-10.5353
เสื้อ	-10.5354
▁sh	-10.5355
ทิศ	-10.5355
ถือว่า	-10.5358
▁หลักสูตร	-10.5361
▁civil	-10.5364
ks	-10.5364
▁fear	-10.5366
กำเนิด	-10.5368
อาจารย์	-10.5369
▁von	-10.5369
ทั้งตำบล	-10.537
▁เป็นผู้	-10.5371
ไวรัส	-10.5372
▁Christ	-10.5373
แด	-10.5374
▁historian	-10.5374
เชอร์	-10.5376
▁toward	-10.5378
ราบติดอาวุธหนัก	-10.5378
ชนิดหนึ่ง	-10.5381
tes	-10.5382
▁northeast	-10.5384
ani	-10.5386
▁Scottish	-10.5386
▁semi	-10.5388
▁destroy	-10.539
การ์ด	-10.5401
ขณะ	-10.5401
▁killing	-10.5401
▁2534	-10.5406
▁wood	-10.5406
วิจัย	-10.5406
สถานการณ์	-10.5406
▁ด้าน	-10.5407
▁Master	-10.5409
ัดกระบวนทัพให้	-10.5409
▁multi	-10.541
▁Mad	-10.5411
เวช	-10.5412
▁worldwide	-10.5413
ดัดแปลง	-10.5417
แข่ง	-10.5419
ทรัพย์สิน	-10.542
ถ่าย	-10.542
ยื่น	-10.5423
▁offensive	-10.5426
▁territory	-10.5426
▁ca	-10.5427
▁condition	-10.5431
▁singles	-10.5432
ทับ	-10.5433
มีการค้นพบการจ	-10.5434
รู้สึก	-10.5438
▁pieces	-10.544
อีเลียด	-10.5442
มหาชน	-10.5445
▁equal	-10.5446
▁sequence	-10.5448
เจอ	-10.5449
ย่าน	-10.545
ตะวันออกเฉียงใต้	-10.5454
ธรรมดา	-10.5456
ณี	-10.5456
▁จอห์น	-10.5457
ที่เมือง	-10.5457
passes	-10.5458
▁planet	-10.5461
tter	-10.5464
บังคับ	-10.5464
▁degree	-10.5465
▁vocal	-10.5465
กล้า	-10.5467
▁appearances	-10.5467
▁Pan	-10.5468
เพศ	-10.547
โดยไม่	-10.547
ไม่เคย	-10.547
▁โรงพยาบาล	-10.5473
▁broad	-10.5475
losing	-10.5476
แปลง	-10.5477
▁ตั้งอยู่	-10.5478
▁trying	-10.5481
เดีย	-10.5481
▁CD	-10.5484
▁famous	-10.5484
▁university	-10.5484
นักรบชนชั้นสูง	-10.5486
จดหมาย	-10.5486
▁54	-10.549
▁fellow	-10.549
▁พื้นที่	-10.5494
▁arms	-10.5495
▁symbol	-10.5499
uff	-10.5503
เขียว	-10.5507
เช้า	-10.5507
▁trees	-10.5508
ประลองฝีมือกัน	-10.5513
ไหน	-10.5515
▁Pop	-10.5517
▁สกุล	-10.5517
▁map	-10.552
▁article	-10.552
ขนาดของโล	-10.5522
cul	-10.5528
หัวหน้า	-10.553
ยังนิยมการ	-10.5532
▁settlement	-10.5533
▁Doctor	-10.5535
sey	-10.5539
ประเทศจีน	-10.5541
ا	-10.5541
ลาด	-10.5542
▁am	-10.5543
แขน	-10.5543
rich	-10.5543
svg	-10.5545
▁let	-10.5545
▁ยูไนเต็ด	-10.5547
▁contribut	-10.5549
▁leaders	-10.5553
บรรยาย	-10.5553
▁hands	-10.5554
▁therefore	-10.5555
▁Women	-10.5555
▁Cho	-10.5558
การเข้ารณรงค์	-10.556
ในเวลา	-10.5561
พระนคร	-10.5563
▁tree	-10.5564
▁supply	-10.5565
ร้องเพลง	-10.557
ซึ่งมี	-10.5571
▁rainfall	-10.5572
▁เราพบว่า	-10.5573
ken	-10.5574
▁Rose	-10.5574
▁Town	-10.5575
▁chosen	-10.5577
▁Who	-10.5577
ฮังการี	-10.5579
▁function	-10.5583
สวม	-10.5583
อยู่กับ	-10.559
กล้ามเนื้อ	-10.5592
▁Dream	-10.5594
era	-10.5596
แทนที่	-10.5601
▁birds	-10.5601
▁Islands	-10.5602
▁ในมหากาพย์	-10.5604
▁twice	-10.5607
▁ท	-10.5611
bre	-10.5613
เคน	-10.5614
▁นาที	-10.5615
เป็นที่รู้จัก	-10.562
คอนเสิร์ต	-10.5621
▁BC	-10.5621
โอน	-10.5625
ไก	-10.5628
aki	-10.5634
ς	-10.5634
ological	-10.5636
bert	-10.5637
▁Sound	-10.5641
▁Marine	-10.5649
▁Mount	-10.5651
มีการวิวัฒนาการ	-10.5653
แรงงาน	-10.5653
▁comes	-10.5653
▁activities	-10.5655
เวลาเดียวกับที่	-10.5656
In	-10.5657
เชื่อ	-10.5662
▁Pennsylvania	-10.5663
▁challenge	-10.5665
gra	-10.5666
▁Olympic	-10.5667
▁operated	-10.5671
▁crash	-10.5673
  	-10.5674
เช่นนี้	-10.5676
*	-10.5677
เป็นตัว	-10.5678
pur	-10.5678
▁consecutive	-10.5679
▁Harry	-10.5682
ดุ	-10.5682
▁53	-10.5684
ที่มีความ	-10.5685
สนธิสัญญา	-10.5685
สติ	-10.5687
เหล่านั้น	-10.5688
▁อันดับ	-10.569
ได้รับความนิยม	-10.5691
จะทำให้	-10.5691
ปะทะกันของกองทัพ	-10.5692
▁Office	-10.5693
▁hope	-10.5695
โลหะ	-10.5695
พรรคประชาธิปัตย์	-10.5696
dom	-10.5696
AA	-10.5697
▁Special	-10.5698
เวที	-10.5698
ซิส	-10.57
ล้อม	-10.5701
▁Railway	-10.5707
tar	-10.5707
อย	-10.5707
▁newspaper	-10.5707
▁1914	-10.5708
af	-10.5709
ต่อเนื่อง	-10.571
เครื่องยนต์	-10.5712
สัง	-10.5712
ธี	-10.5716
▁here	-10.5716
▁grew	-10.5717
ที่อาศัยการเข้า	-10.5718
▁boat	-10.5726
▁โจ	-10.5727
การขยายตัวของ	-10.5729
สเตอร์	-10.5731
bel	-10.5731
ยอม	-10.5732
▁brown	-10.5732
▁โร	-10.5733
กำหนดให้	-10.5735
▁250	-10.5736
ยุทธวิธีทางการ	-10.5737
พรรคการเมือง	-10.5738
▁ดี	-10.5738
▁faced	-10.5739
▁Ye	-10.574
▁Commission	-10.574
▁offer	-10.5741
▁เทศบาลตำบล	-10.5743
ich	-10.5744
▁herself	-10.5747
ปฏิกิริยา	-10.5756
ยุติ	-10.5758
▁bank	-10.5758
▁claims	-10.5758
พิพิธภัณฑ์	-10.5761
▁สถานที่	-10.5765
▁Irish	-10.5765
▁Columbia	-10.5766
▁simple	-10.5766
▁fully	-10.5766
พระนาง	-10.5769
▁estate	-10.5769
▁accompani	-10.577
▁push	-10.5772
เรื่องนี้	-10.5773
มาเลเซีย	-10.5775
▁ใบ	-10.5777
▁contained	-10.578
จุล	-10.5785
ces	-10.5786
เหลือง	-10.5787
▁56	-10.5792
นัน	-10.5793
▁Arthur	-10.5796
▁respect	-10.5797
ตรวจสอบ	-10.5797
เมีย	-10.5798
▁Senate	-10.5798
มูลนิธิ	-10.5799
gin	-10.5803
แผนก	-10.5806
int	-10.5807
▁simply	-10.5809
▁ในตอนกลาง	-10.5811
▁Bel	-10.5812
ช่วยให้	-10.5814
▁wounded	-10.5815
ความร้อน	-10.5816
▁opinion	-10.5816
▁Allied	-10.5816
▁block	-10.5819
ทอด	-10.582
▁nothing	-10.582
▁|1	-10.5823
▁Jr	-10.5824
กี้	-10.5827
จะต้องเป็นช่วง	-10.5828
▁opera	-10.5829
ชั่วคราว	-10.5832
โคก	-10.5835
▁expedition	-10.5839
▁serving	-10.5839
▁1946	-10.5839
bury	-10.5844
▁chose	-10.5844
▁Board	-10.5845
สะสม	-10.5845
▁assault	-10.5848
เท่ากับ	-10.5849
ติดตาม	-10.5849
การประชุม	-10.585
▁camera	-10.5852
พี่	-10.5853
ในรายการ	-10.5854
▁leaves	-10.5857
▁Spain	-10.5859
สอบ	-10.586
▁genre	-10.586
ที่สาม	-10.5861
เสรี	-10.5862
▁authority	-10.5863
▁ประจำปี	-10.5865
▁reports	-10.5866
มุ่ง	-10.5868
งบประมาณ	-10.5869
▁cannot	-10.587
ย่อม	-10.587
สมเด็จ	-10.5871
ไปด้วย	-10.5874
▁storyline	-10.5877
ret	-10.5877
▁silver	-10.5878
▁85	-10.5879
ประทับ	-10.5882
▁บริเวณ	-10.5883
อุดม	-10.5883
▁Each	-10.5884
nt	-10.5886
▁Dark	-10.5888
นครศรีธรรมราช	-10.5889
▁1948	-10.5889
▁Americans	-10.589
▁horses	-10.5893
อียิปต์	-10.5894
รับผิดชอบ	-10.5894
ple	-10.5894
.6	-10.5894
▁Inter	-10.5895
▁Science	-10.5895
ละครโทรทัศน์	-10.5896
ย้ายไป	-10.5896
▁environment	-10.5896
การต่อสู้	-10.5897
▁deck	-10.59
สัมผัส	-10.5901
▁1963	-10.5903
ada	-10.5904
▁composition	-10.5905
▁versions	-10.5907
ทำนอง	-10.5907
แฮ	-10.5908
▁unknown	-10.5908
▁workers	-10.5909
nan	-10.5909
▁firm	-10.5909
▁อิน	-10.591
▁solo	-10.5913
▁Point	-10.5913
▁expansion	-10.5914
mu	-10.5914
▁วิทยาลัย	-10.5915
▁จู	-10.5916
▁1962	-10.592
ตำนาน	-10.5921
▁Due	-10.5922
▁ช่วง	-10.5926
▁95	-10.5931
▁purpose	-10.5931
ose	-10.5932
ยาม	-10.5932
และเป็น	-10.5937
▁fish	-10.5937
อบ	-10.5941
แอนด์	-10.5942
officially	-10.5943
-2	-10.5944
▁Qu	-10.595
▁Early	-10.5951
gr	-10.5953
▁growing	-10.5953
โซล	-10.5956
8%	-10.5957
▁Rob	-10.5957
▁spot	-10.5958
ที่เคย	-10.5962
▁contain	-10.5963
▁walls	-10.5963
▁follows	-10.5963
▁breed	-10.5965
านนท์	-10.5966
▁extend	-10.5968
▁wave	-10.5972
▁2536	-10.5978
ตัวอักษร	-10.5978
นี้จะ	-10.5979
ศควรรษที่	-10.598
อันตราย	-10.598
นำไป	-10.5981
▁defend	-10.5982
▁Bob	-10.5983
๗	-10.5983
▁Matt	-10.5984
▁Miss	-10.5988
์สันนิษฐานว่า	-10.5994
▁อาร์คอน	-10.5999
▁นักประวัติศาสตร	-10.6001
▁2531	-10.6003
▁save	-10.6003
▁advanced	-10.6004
วัคซีน	-10.6005
▁fiction	-10.6009
▁Project	-10.6011
▁adopted	-10.6013
ace	-10.6013
▁exchange	-10.6014
สีเหลือง	-10.6014
วิดีโอ	-10.6015
นิก	-10.6016
คณะรัฐมนตรี	-10.6019
▁target	-10.6024
คนแรก	-10.6024
ινθος	-10.6029
เลอ	-10.603
กำกับ	-10.6033
ต่อจาก	-10.6035
ษา	-10.6037
▁stations	-10.6037
หลายหมู่บ้าน	-10.6038
▁opposition	-10.6039
Κόρ	-10.604
▁capacity	-10.604
▁basis	-10.6042
▁flying	-10.6043
▁crossing	-10.6048
ไต้หวัน	-10.6051
▁เดิม	-10.6052
จาง	-10.6052
▁เช่นในกรณีของ	-10.6052
rit	-10.6054
▁standing	-10.6054
▁Ray	-10.6055
หอม	-10.6055
▁message	-10.6056
▁ชิ	-10.6061
▁2533	-10.6061
พิธีกรรมทางศาสนา	-10.6061
ในนาม	-10.6064
▁Walter	-10.6066
▁iron	-10.6067
des	-10.6068
▁นายกรัฐมนตรี	-10.6069
hor	-10.6069
แบ่งออกเป็น	-10.6071
bal	-10.6072
▁heard	-10.6073
แท้	-10.6074
จากความต้องการ	-10.6076
ale	-10.6083
▁1917	-10.6084
ami	-10.6084
ได้อย่าง	-10.6084
▁li	-10.6086
ola	-10.6087
▁Airport	-10.6088
ชี้	-10.6088
▁digital	-10.6088
▁Bal	-10.6089
มีผล	-10.6089
▁seconds	-10.6093
dia	-10.6094
เมืองคอรินธ์	-10.6095
ลี่	-10.6098
▁shape	-10.6098
นันท์	-10.6107
ons	-10.6115
▁สม	-10.6116
ของท่าน	-10.6117
ไหม	-10.6119
lat	-10.6119
air	-10.6119
ดังต่อไปนี้	-10.612
▁Min	-10.6121
▁product	-10.6125
▁abandoned	-10.6127
▁budget	-10.6129
92	-10.6132
ของไทย	-10.6133
▁Earl	-10.6133
อพยพ	-10.6134
ทวี	-10.6134
สาธารณะ	-10.6134
▁nation	-10.6135
vel	-10.6136
เฉลิม	-10.6136
▁advantage	-10.6136
มีขนาด	-10.6137
▁winner	-10.6141
▁depend	-10.6143
▁reserve	-10.6145
การป้องกันจาก	-10.6145
สังหาร	-10.6145
เทร	-10.6148
▁producers	-10.6149
▁l	-10.615
ออสเตรีย	-10.615
ปอ	-10.6151
ake	-10.6155
tis	-10.6157
เผา	-10.6158
เกณฑ์	-10.6158
▁จนถึง	-10.6161
บริ	-10.6162
▁measure	-10.6163
ำแพงเมืองล้อมรอบ	-10.6167
ในฤดูกาล	-10.617
ano	-10.6174
โปรด	-10.6175
▁roof	-10.6176
▁brief	-10.6177
▁news	-10.618
กำจัด	-10.6181
▁pull	-10.6186
▁regiment	-10.6186
ง่าย	-10.619
ฟอร์	-10.6192
▁จึงมีการสร้างก	-10.6193
▁ข้อมูล	-10.6193
ขบวน	-10.6194
SA	-10.6195
ศัตรูร่วมกัน	-10.6196
เล็กน้อย	-10.6197
สถานีโทรทัศน์	-10.62
ของตนเอง	-10.6201
เดล	-10.6202
▁creating	-10.6203
AR	-10.6203
lis	-10.6207
▁ซู	-10.621
▁hall	-10.621
▁Del	-10.6211
1||	-10.6211
▁sports	-10.6214
▁Jersey	-10.622
▁newly	-10.6223
เดินทางไป	-10.6227
▁Way	-10.6227
stein	-10.6228
ida	-10.6231
ตรงกับ	-10.6232
▁Russia	-10.6233
▁Bart	-10.6234
ไก่	-10.6242
มิติ	-10.6242
้า	-10.6244
ก์	-10.6246
พฤติกรรม	-10.6249
▁fast	-10.625
worth	-10.625
การก่อสร้าง	-10.6251
▁Ber	-10.6251
กบฏ	-10.6254
ปรัชญา	-10.6259
▁Station	-10.6259
จุ	-10.6264
แช	-10.6265
ยุบ	-10.6265
▁สงคราม	-10.6266
บึง	-10.6267
เป็นเมืองเกิด	-10.627
▁unique	-10.6271
มอ	-10.6272
คล้ายกับ	-10.6272
เลือกตั้งสมาชิก	-10.6272
▁Em	-10.6274
ศร	-10.6274
ความรู้สึก	-10.6276
▁cricket	-10.6276
▁rescue	-10.6277
▁บี	-10.628
▁mode	-10.6282
frac	-10.6282
ที่ทำ	-10.6284
ston	-10.6288
ฮู	-10.6288
▁northwest	-10.6288
▁รัฐบาล	-10.6288
วัสดุ	-10.6291
▁Lewis	-10.6291
เขาได้	-10.6294
▁ฉบับ	-10.6294
ซุน	-10.6294
tel	-10.6296
▁Za	-10.6297
สวัสดิ์	-10.6298
▁regarded	-10.6299
▁beyond	-10.63
บาน	-10.6301
เป็นรูป	-10.6302
▁administration	-10.6304
ภัทร	-10.6308
▁Georgia	-10.6311
วิญญาณ	-10.6312
วิชาการ	-10.6313
สู้	-10.6313
ณีการรวมตัวเข้า	-10.6318
▁convince	-10.632
ency	-10.6322
มีจำนวน	-10.6322
▁girl	-10.6323
การบริหาร	-10.6326
▁master	-10.6328
▁bodies	-10.6329
▁โดยบางกร	-10.6335
พยาบาล	-10.6335
▁หน้า	-10.6336
▁dismiss	-10.6336
▁editor	-10.6337
มวล	-10.6338
▁rival	-10.6338
ไม่นาน	-10.6339
kh	-10.634
▁possibly	-10.634
ese	-10.6342
▁actors	-10.6342
กรุงศรีอยุธยา	-10.6344
▁accept	-10.6344
▁adult	-10.6345
▁ราย	-10.6346
▁narrow	-10.6348
▁refer	-10.635
สว่าง	-10.6351
▁Girl	-10.6352
▁Ash	-10.6353
・	-10.6353
พระมหา	-10.6354
ของเรา	-10.6355
▁cur	-10.6356
ถาวร	-10.636
สำรวจ	-10.6362
การโจมตี	-10.6363
▁cellspacing	-10.6364
▁บท	-10.6364
▁จี	-10.6364
▁หน่วย	-10.637
โปแลนด์	-10.6371
นวนิยาย	-10.6372
ขึ้นอยู่กับ	-10.6373
ปัจจัยที่เกิดจาก	-10.6373
▁lives	-10.6373
▁3.	-10.6374
▁cellpadding	-10.6375
▁Prime	-10.6382
.3	-10.6383
ในระบบ	-10.6383
▁debate	-10.6384
▁โม	-10.6386
ซี่	-10.6388
นี้ได้	-10.6388
▁Play	-10.6392
▁ฟ	-10.6393
▁Video	-10.6393
นม	-10.6393
▁×	-10.6394
บำรุง	-10.6395
▁Your	-10.64
occupied	-10.6404
ราวศตวรรษที่	-10.6404
▁1956	-10.6404
phy	-10.6404
แผนที่	-10.6404
▁อย่างไรก็ดี	-10.6411
เขมร	-10.6412
ในโลก	-10.6413
มารี	-10.6413
app	-10.6414
▁criticism	-10.6417
▁management	-10.6423
หมื่น	-10.6424
ล่าง	-10.6424
▁Square	-10.6426
len	-10.6426
▁MD	-10.6426
ก่อนคริสตกาล	-10.6431
จำนวนประชากรใน	-10.6433
▁Tag	-10.6436
ค์	-10.6439
▁phase	-10.644
▁สร้าง	-10.6441
วบรวมคนเข้า	-10.6444
▁เร	-10.6448
อุโบสถ	-10.6449
▁ancient	-10.645
▁Also	-10.645
▁อาหาร	-10.645
ติน	-10.6451
พรหม	-10.6452
กง	-10.6452
▁Ban	-10.6454
ลอง	-10.6455
▁retreat	-10.6456
ปราบ	-10.6459
▁Maria	-10.6465
▁57	-10.6467
▁มหา	-10.6468
ส่วนสำคัญในการร่	-10.6473
ความเชื่อหรือ	-10.6475
▁mile	-10.6476
▁decline	-10.6476
ว่าด้วย	-10.6477
▁ต้อง	-10.648
▁retired	-10.6481
ตกลง	-10.6481
more	-10.6489
ล้อ	-10.6491
มูล	-10.6491
dle	-10.6496
▁กีฬา	-10.6497
ัค	-10.6501
sis	-10.6501
▁cultural	-10.6502
▁grow	-10.6505
▁SS	-10.6505
มีชื่อเรียกว่า	-10.6506
นิตยสาร	-10.6508
คัมภีร์	-10.6509
▁Gal	-10.6509
ü	-10.6513
ฟุตบอลโลก	-10.6515
ดั้งเดิม	-10.6515
▁yellow	-10.6515
ของบริษัท	-10.6517
▁creation	-10.6518
▁torpedo	-10.6518
ral	-10.6519
▁วา	-10.652
▁Rome	-10.652
MA	-10.6521
▁Fo	-10.6521
elli	-10.6522
วิศวกรรม	-10.6523
ผู้ชาย	-10.6528
น้ำหนัก	-10.653
จอห์น	-10.6532
▁learn	-10.6533
▁orders	-10.6535
ธรรมศาสตร์	-10.6535
▁forest	-10.6535
▁1938	-10.6535
บราซิล	-10.6536
pin	-10.6536
▁briefly	-10.6538
หาย	-10.654
๊	-10.6544
▁necessary	-10.6544
ในที่สุด	-10.6545
rid	-10.6546
uri	-10.6549
สำหรับการ	-10.6549
พจน์	-10.655
▁Singapore	-10.6554
▁Lady	-10.6554
▁Ohio	-10.6556
▁animal	-10.6557
เข้าไปใน	-10.6561
สตูดิโอ	-10.6561
Re	-10.6561
เกิดขึ้นของลัทธิ	-10.6563
ฟรี	-10.6565
▁individuals	-10.6565
achieved	-10.6566
▁armed	-10.6567
ที่ปรึกษา	-10.6568
พิทักษ์	-10.6569
▁ก่อนจะ	-10.6569
▁zone	-10.6571
▁การแข่งขัน	-10.6574
ที่ต้องการ	-10.6575
▁repeated	-10.6578
ความหมาย	-10.658
หลายครั้ง	-10.658
▁ประวัติศาสตร์	-10.6582
ที่หมู่บ้าน	-10.6582
è	-10.6583
▁filming	-10.6584
▁watch	-10.6584
▁Summer	-10.6584
ologist	-10.6586
▁Meanwhile	-10.6588
▁peace	-10.659
สิ่งแวดล้อม	-10.6592
จนเกิดเป็น	-10.6592
▁twelve	-10.6595
สนใจ	-10.6598
oo	-10.6599
▁rejected	-10.6599
ปัจจัยทางศาสนา	-10.66
▁ดอก	-10.6601
▁granted	-10.6602
▁เจ้าฟ้า	-10.6602
เหมือนกัน	-10.6603
▁discover	-10.6605
เออร์	-10.6607
เครื่องหมาย	-10.6613
▁Secretary	-10.6614
ction	-10.6617
▁ออกอากาศ	-10.6618
▁x	-10.6618
ไต	-10.6618
▁plants	-10.662
อาณานิคม	-10.6621
nic	-10.6623
▁conference	-10.6623
▁kilometres	-10.6627
arch	-10.6628
▁2529	-10.6628
▁Tropical	-10.6628
ชีพ	-10.6631
▁count	-10.6631
body	-10.6633
กล้อง	-10.6639
▁Philadelphia	-10.664
่ว	-10.6641
cer	-10.6641
▁selection	-10.6642
▁parallel	-10.6643
แฟ	-10.6644
▁Research	-10.6647
▁surrender	-10.6647
▁method	-10.665
chan	-10.6652
")	-10.6653
▁Down	-10.6654
เติม	-10.6655
war	-10.6655
ค้นพบ	-10.6657
▁•	-10.6661
สมัยใหม่	-10.6661
▁พอ	-10.6663
▁๖	-10.6668
▁Moon	-10.6668
▁finding	-10.667
gon	-10.6672
▁infantry	-10.6672
▁Grant	-10.6672
▁Tra	-10.6676
ผู้แทน	-10.6676
อยู่บน	-10.6676
ซ่อน	-10.6678
▁Emperor	-10.6679
ire	-10.668
ไทร	-10.668
ดำรง	-10.6683
▁del	-10.6684
รายได้	-10.6685
▁Anderson	-10.6686
▁−	-10.6686
▁expanded	-10.669
▁ราชวงศ์	-10.6692
▁1919	-10.6692
เขาก็	-10.6695
มวย	-10.6697
▁albums	-10.6697
▁bad	-10.6697
ตู้	-10.6698
▁spen	-10.6701
▁Francisco	-10.6705
▁Conference	-10.6708
▁broken	-10.6709
▁holding	-10.6709
maintained	-10.671
van	-10.6711
เศษ	-10.6712
▁1961	-10.6715
▁street	-10.6716
▁Disney	-10.6716
ชายฝั่ง	-10.6716
เวอร์ชัน	-10.6716
เนส	-10.6717
log	-10.6717
▁nuclear	-10.6721
▁เรือ	-10.6721
▁Wil	-10.6721
▁Ger	-10.6721
นับถือ	-10.6726
▁66	-10.6728
การระเบิดขึ้นของ	-10.6732
▁composer	-10.6733
ดัน	-10.6734
ถึงแก่กรรม	-10.6737
▁IV	-10.6737
▁permanent	-10.6738
Co	-10.6739
ให้มี	-10.674
เคยเป็น	-10.674
ust	-10.6741
▁successfully	-10.6743
ดี้	-10.6744
▁Knight	-10.6744
tern	-10.6745
▁partner	-10.6747
เด่น	-10.6748
ラ	-10.6749
การปฏิวัติ	-10.675
improved	-10.675
ลิส	-10.6751
▁leadership	-10.6751
ได้ว่าน่าจะมี	-10.6751
ขี้	-10.6753
เว็บ	-10.6755
เฝ้า	-10.6755
▁contest	-10.6757
▁76	-10.6767
ลงเล่น	-10.6768
▁organized	-10.6768
จัดขึ้น	-10.6772
▁Brad	-10.6773
เทียม	-10.6775
▁alternative	-10.6776
▁caught	-10.6778
ตั้งชื่อ	-10.6778
▁critic	-10.6779
▁motion	-10.678
เราสันนิษฐาน	-10.6781
ของคนหลาย	-10.6786
▁58	-10.6792
▁Miller	-10.6792
ผู้มี	-10.6793
สิริ	-10.6793
▁1936	-10.6794
rus	-10.6794
ato	-10.6796
mid	-10.6796
▁par	-10.6797
▁engineer	-10.6798
▁didn	-10.68
แคนาดา	-10.6802
▁pitch	-10.6804
ome	-10.6806
ติดตั้ง	-10.6808
▁ideas	-10.6808
-4	-10.6813
ition	-10.6814
▁acquired	-10.6815
▁commissioned	-10.6815
▁provid	-10.6816
ป้าย	-10.6818
▁Command	-10.682
▁Liverpool	-10.6822
▁des	-10.6824
บรา	-10.6825
ฤ	-10.6831
▁moral	-10.6832
▁หนังสือ	-10.6832
บย้ายถิ่น	-10.6832
หมวด	-10.6835
▁arrival	-10.6837
รัฐมนตรีว่าการ	-10.6838
ตัวเลข	-10.6838
ที่ก่อตั้งในปี	-10.6839
▁"#	-10.6839
สามารถใช้	-10.684
มอร์	-10.6842
▁Nintendo	-10.6845
▁franchise	-10.6846
เรือง	-10.685
▁comedy	-10.6852
▁Jewish	-10.6852
▁700	-10.6853
▁นักฟุตบอลชาว	-10.6853
เป็นผลจากการอพย	-10.6862
ลีน	-10.6864
▁1958	-10.6866
wan	-10.6866
erv	-10.6872
ได้ประกาศ	-10.6872
▁Storm	-10.6874
gent	-10.6874
วิจารณ์	-10.6875
▁72	-10.6875
ว่าง	-10.6876
หง	-10.6876
ST	-10.6878
เจ้าพระยา	-10.6878
แพร่	-10.6882
▁combination	-10.6882
▁fruit	-10.6883
ในทาง	-10.6883
ศักราช	-10.6883
win	-10.6884
▁นคร	-10.6885
ora	-10.6886
หล่อ	-10.6887
▁genus	-10.6887
รับรอง	-10.6888
▁mountain	-10.6889
▁Journal	-10.6889
▁families	-10.6891
▁vehicles	-10.6891
gene	-10.6892
ม่า	-10.6893
▁Davis	-10.6893
ในรอบ	-10.6894
▁ปา	-10.6895
ปัจจัย	-10.6896
▁programme	-10.6898
uc	-10.6899
ัช	-10.69
หัน	-10.6901
oph	-10.6902
ในประวัติศาสตร์	-10.6905
ญาณ	-10.6906
▁โดยใช้	-10.6906
ที่สร้าง	-10.6909
เกษตร	-10.691
rie	-10.691
▁seventh	-10.6911
yan	-10.6912
ä	-10.6914
ของมนุษย์	-10.6915
▁authorities	-10.6919
ในสังกัด	-10.692
▁Among	-10.6922
สิงคโปร์	-10.6922
มาร	-10.6925
เรย์	-10.6925
มั่น	-10.6925
▁Cat	-10.6926
ในกลุ่ม	-10.6928
ไทยแลนด์	-10.693
▁controlled	-10.6933
ที่ทำให้	-10.6934
▁nest	-10.6935
▁Once	-10.6938
▁secure	-10.694
ette	-10.6941
▁ประการแรกก็คือ	-10.6943
▁Sur	-10.6946
ก็ยัง	-10.6948
▁Fire	-10.6948
ern	-10.6948
ถาม	-10.6949
AN	-10.695
▁filmed	-10.695
sia	-10.6953
รังสี	-10.6956
▁element	-10.696
▁battalion	-10.696
▁Lincoln	-10.6962
แมลง	-10.6962
gn	-10.6964
▁Review	-10.6964
▁determined	-10.6966
▁Kim	-10.6966
มีอยู่หลายอย่าง	-10.6968
▁security	-10.6969
▁Steve	-10.697
▁turns	-10.6971
้ว	-10.6974
ประดิษฐ์	-10.6975
▁headquarters	-10.6976
put	-10.6977
scheduled	-10.6978
;&	-10.698
▁ปัจจัยที่ทำให้	-10.6982
▁temple	-10.6983
เข	-10.6983
เอะ	-10.6986
นิยาม	-10.6989
▁Space	-10.699
มาก่อน	-10.6991
▁Albert	-10.6992
บอกว่า	-10.6993
▁online	-10.6996
▁Director	-10.6996
▁Band	-10.6997
type	-10.6997
defined	-10.6998
▁defensive	-10.6999
▁mentioned	-10.7
▁defence	-10.7
มีหน้าที่	-10.7002
▁Ottoman	-10.7002
▁63	-10.7003
▁drop	-10.7006
▁reveal	-10.7006
ัต	-10.7006
▁gray	-10.7007
▁Original	-10.7009
.4	-10.701
▁Ball	-10.7011
▁recently	-10.7014
ป้อม	-10.7015
–25	-10.7015
▁บา	-10.7018
▁bomb	-10.7018
ians	-10.7019
ปฐม	-10.7019
scope	-10.702
▁1947	-10.7023
▁path	-10.7024
ฉัตร	-10.7026
▁SR	-10.7027
นส์	-10.7032
สลับ	-10.7036
▁minister	-10.7037
▁โรงเรียนบ้าน	-10.7037
–0	-10.7038
นิยาย	-10.7039
การบิน	-10.704
▁seasons	-10.7044
เทศกาล	-10.7045
▁branch	-10.7046
สตา	-10.7048
เก้า	-10.7054
▁roads	-10.7055
▁looking	-10.7058
▁พร้อมกับ	-10.7058
บางคน	-10.7058
เปลือก	-10.7062
▁ละคร	-10.7063
ประดิษฐาน	-10.7064
rick	-10.7067
จนกระทั่ง	-10.7068
แคน	-10.7069
ท่อ	-10.707
▁nor	-10.7074
▁สี	-10.7074
คุม	-10.7075
▁Fu	-10.7076
▁Brian	-10.7077
▁thing	-10.7082
▁investigation	-10.7083
▁sell	-10.7084
cri	-10.7085
▁โดยที่	-10.7094
▁corner	-10.7097
ตึก	-10.7098
▁protection	-10.7101
▁occur	-10.7103
▁อยู่	-10.7104
▁singing	-10.7104
BS	-10.7105
ธงชาติ	-10.7109
▁pick	-10.7111
=1	-10.7115
▁62	-10.7116
▁proceed	-10.712
bla	-10.7121
สามัญ	-10.7122
▁flat	-10.7123
▁dedicated	-10.7125
AL	-10.7125
ประพันธ์	-10.7126
วิทยุ	-10.7126
ขัด	-10.7128
สถานีรถไฟ	-10.7135
▁Kar	-10.7136
▁จุฬาลงกรณ์	-10.7138
จัง	-10.714
▁Ve	-10.7143
▁prison	-10.7147
▁shooting	-10.7148
▁Bad	-10.7148
วิถี	-10.7149
▁รูป	-10.715
rom	-10.7151
▁warm	-10.7152
▁raid	-10.7154
พรรณ	-10.7156
ยูเครน	-10.7156
▁Tro	-10.7159
▁Golden	-10.7162
กรด	-10.7163
▁Simon	-10.7166
มีลักษณะคล้ายกับ	-10.7166
มาในตอนปลาย	-10.7167
ซูเปอร์	-10.7167
สน	-10.7167
spect	-10.7169
ผู้เข้าแข่งขัน	-10.717
▁express	-10.7171
ขัน	-10.7172
เม็กซิโก	-10.7173
▁จัด	-10.7175
▁climb	-10.7176
ก้าน	-10.7178
▁Win	-10.7178
lip	-10.7179
▁Back	-10.718
ใช้ชื่อ	-10.718
▁Vol	-10.7181
▁ประธานาธิบดี	-10.7183
ญา	-10.7183
ขวัญ	-10.7184
▁Wild	-10.7184
▁Lieutenant	-10.7186
▁add	-10.7187
▁เดอ	-10.7187
กองทัพเรือ	-10.7188
พระบรม	-10.7191
ฝน	-10.7192
การกระทำ	-10.7192
ทรงพระกรุณา	-10.7193
นิส	-10.7193
="4"	-10.7196
▁โฮ	-10.7198
▁Gulf	-10.7198
▁2,	-10.7199
▁แอ	-10.7199
▁rare	-10.7203
▁entirely	-10.7203
พัง	-10.7205
พะ	-10.7207
AF	-10.7208
ดอร์	-10.7216
▁piano	-10.7218
▁gives	-10.7218
ิต	-10.7218
rate	-10.7219
▁signal	-10.722
▁gradual	-10.7222
▁types	-10.7224
บาล	-10.7225
ที่อยู่ใน	-10.7227
๖	-10.7227
▁ดู	-10.7229
▁ผ่านขั้นตอน	-10.7232
arian	-10.7236
หน	-10.7236
อาร์กอส	-10.7238
▁argu	-10.7238
▁นักกีฬา	-10.7239
เมา	-10.7244
ยังมีการ	-10.7245
▁ceremony	-10.7245
▁Lin	-10.7247
▁1953	-10.7248
sel	-10.7248
book	-10.7249
▁purchased	-10.7251
ในบริเวณ	-10.7254
ทางหลวง	-10.7255
Άργος	-10.7255
ฝีมือ	-10.7256
▁เกาะ	-10.7256
▁intersection	-10.726
แบน	-10.7263
มุมมอง	-10.7266
▁cl	-10.7266
▁touchdown	-10.7268
▁younger	-10.7268
▁ทำ	-10.7269
▁PlayStation	-10.7269
ลักษณ์	-10.727
ผู้ใด	-10.7271
▁brigade	-10.7271
▁domestic	-10.7271
▁page	-10.7273
หรือยุคคลาสสิค	-10.7277
เลิศ	-10.7283
▁flooding	-10.7286
▁Pen	-10.7288
tain	-10.7288
▁1959	-10.7289
mat	-10.7297
▁volume	-10.7297
▁catch	-10.7298
rag	-10.7298
▁Bowl	-10.7298
ทั้งปวง	-10.7299
▁poll	-10.73
▁session	-10.7302
▁why	-10.7304
▁Carey	-10.7304
aceae	-10.7305
▁quite	-10.7306
▁Sky	-10.7307
▁1954	-10.7308
tte	-10.7314
▁ทั้งเอเธนส์	-10.7314
duct	-10.7317
▁fair	-10.7318
rum	-10.7318
ผู้บัญชาการ	-10.732
มนตรี	-10.732
▁ยา	-10.7323
การจัดระเบียบทาง	-10.7324
▁Ser	-10.7324
เง	-10.7326
▁เคย	-10.7335
จะได้รับ	-10.7336
เลขาธิการ	-10.7341
แร	-10.7346
▁generation	-10.7348
สายการบิน	-10.7349
▁Tim	-10.735
▁ได้มีการ	-10.7353
การเมืองชนิด	-10.7354
zy	-10.7356
▁กองทัพ	-10.7356
▁platform	-10.7357
▁Arts	-10.7358
▁Op	-10.7362
▁1957	-10.7364
▁fun	-10.7364
▁try	-10.7371
▁carry	-10.7371
▁1915	-10.7376
oma	-10.7377
▁นิ	-10.7377
เฟอร์	-10.7379
วอล	-10.738
▁complain	-10.738
▁temperature	-10.7381
bro	-10.7382
ดีเด่น	-10.7382
ด้านหน้า	-10.7384
กอร์	-10.7385
experienced	-10.7386
▁analysis	-10.7387
ของประเทศไทย	-10.7387
▁Public	-10.739
dra	-10.7392
solid	-10.7393
▁se	-10.7393
▁Gen	-10.7394
▁homes	-10.7397
ในวัน	-10.7401
oli	-10.7401
▁Daily	-10.7404
ของกลุ่ม	-10.7406
▁Os	-10.7406
▁1952	-10.7406
CA	-10.7407
▁survey	-10.7408
▁industrial	-10.741
▁constant	-10.7411
▁centuries	-10.7413
วามต้องการรูปแบบ	-10.7413
gre	-10.7413
อุทยานแห่งชาติ	-10.7413
▁พร้อม	-10.7414
ique	-10.7415
▁เหรียญ	-10.7415
จัก	-10.7416
ไปที่	-10.7419
วิส	-10.742
mas	-10.7421
▁intensity	-10.7423
▁mouth	-10.7426
สวรรคต	-10.7428
เข้ากับ	-10.7428
เจ้าของ	-10.7429
▁และก่อให้เกิดค	-10.7434
の	-10.7435
ผู้ช่วย	-10.7436
ties	-10.7436
gal	-10.7437
▁cat	-10.7437
▁ดิ	-10.7438
มีชื่อ	-10.7438
▁Democratic	-10.7438
ili	-10.7439
ration	-10.744
▁Only	-10.7441
เดนมาร์ก	-10.7442
▁flow	-10.7445
▁mounted	-10.7446
ราชทูต	-10.7448
อนิเมะ	-10.7449
อัด	-10.7449
▁About	-10.745
แมว	-10.745
▁principal	-10.7451
มีบทบาท	-10.7461
▁ในฐานะ	-10.7461
กลัว	-10.7462
ฝัง	-10.7463
แปลก	-10.7464
ูนย์กลางเดียวกัน	-10.7469
▁61	-10.7469
วิลเลียม	-10.7469
พี่ชาย	-10.7471
az	-10.7472
lock	-10.7473
ทะเลสาบ	-10.748
ตัวแทน	-10.748
จุลจอมเกล้า	-10.7481
▁southeast	-10.7482
▁islands	-10.7483
▁finds	-10.7483
▁1916	-10.7486
ผู้โดยสาร	-10.749
▁currently	-10.749
ชุมชนย่อย	-10.7491
▁2530	-10.7494
▁59	-10.7495
▁ค่ำ	-10.7498
เมืองที่มีศ	-10.7498
ญาติ	-10.7501
พญา	-10.7502
จนกลายเป็นชุมชน	-10.7502
▁โรค	-10.7508
cept	-10.751
ลัก	-10.7512
▁recruit	-10.7512
ผัก	-10.7513
▁shark	-10.7515
สห	-10.7518
เอกชน	-10.7518
หมู	-10.7522
▁renam	-10.7522
ถา	-10.7522
ผู้อำนวยการ	-10.7522
เกล	-10.7523
▁favor	-10.7523
▁Imperial	-10.7525
▁เฮ	-10.7525
▁cold	-10.7527
ดับ	-10.7527
นั้นเป็น	-10.7527
วู	-10.7529
▁wild	-10.7531
number	-10.7532
ขุด	-10.7534
โจว	-10.7535
▁อาจ	-10.7535
à	-10.7537
ผู้ชม	-10.7538
▁มัก	-10.7539
▁รวมตัวเข้า	-10.7539
mes	-10.7546
▁provides	-10.7549
▁Songs	-10.755
อย่างน้อย	-10.7551
ที่พบ	-10.7552
▁fl	-10.7552
พัด	-10.7554
วาย	-10.7557
▁roles	-10.7558
▁department	-10.756
▁photo	-10.7562
ื	-10.7563
▁rail	-10.7563
ore	-10.7568
mark	-10.7568
cat	-10.757
ความมั่นคง	-10.757
Pa	-10.7573
▁1955	-10.7575
▁drawn	-10.7575
▁notable	-10.7576
▁app	-10.7578
▁ฮ	-10.758
▁Ross	-10.7584
ผลกระทบ	-10.7584
การใช้งาน	-10.7587
ของวง	-10.759
▁Cro	-10.7592
▁Kong	-10.7592
▁escort	-10.7593
▁ได้รับการ	-10.7593
ทิพย์	-10.7597
pen	-10.7598
lar	-10.7599
▁1937	-10.76
ของตัวเอง	-10.7605
ชื่อเล่น	-10.7605
credited	-10.7606
เบีย	-10.7607
สังเกต	-10.7608
>	-10.7609
ยค	-10.761
▁heat	-10.7612
▁1949	-10.7613
วาด	-10.7613
▁joint	-10.7617
สรุป	-10.7622
ั่ว	-10.7623
สัมพันธ์	-10.7623
▁accident	-10.7623
ได้นำ	-10.7625
การเขียน	-10.7628
เมล็ด	-10.763
tha	-10.7631
โทร	-10.7631
ยอมรับ	-10.7633
▁hotel	-10.7633
▁อาทิ	-10.7633
เกิดจาก	-10.7635
▁till	-10.7637
▁เท	-10.7638
ฮัน	-10.764
แนะนำ	-10.7644
▁180	-10.7645
ฏการณ์ทางสังคม	-10.7651
▁Supreme	-10.7651
▁นัด	-10.7652
▁อันเป็นปราก	-10.7656
▁straight	-10.7657
▁Cu	-10.7659
AP	-10.7659
▁2532	-10.766
▁โครงการ	-10.7661
ริส	-10.7663
receiving	-10.7663
▁unusual	-10.7665
aged	-10.7666
ย่า	-10.7668
▁tri	-10.7668
ขอนแก่น	-10.767
▁ลำ	-10.7671
▁opportunity	-10.7671
▁พรรษา	-10.7672
▁surprise	-10.7674
ภาษี	-10.7675
ไกร	-10.7676
▁Ly	-10.7679
EC	-10.7679
recognized	-10.7682
เป็นภาษา	-10.7683
▁submarine	-10.7684
การแพทย์	-10.7685
▁Wal	-10.7686
ชาวจีน	-10.7687
ของพระ	-10.7689
ปีศาจ	-10.769
ไปตาม	-10.7692
ไพร	-10.7692
▁Spring	-10.7693
▁engaged	-10.7694
burg	-10.7696
มีอายุ	-10.7697
▁walk	-10.7697
▁protected	-10.7698
คราว	-10.77
▁Heart	-10.77
รับราชการ	-10.7704
คัดเลือก	-10.7704
ความขัดแย้ง	-10.7705
ในวงศ์	-10.7706
เกษม	-10.7707
สรรพ	-10.7708
▁Des	-10.7708
ct	-10.7708
▁improve	-10.771
▁Cla	-10.771
รู้ว่า	-10.7711
ยี	-10.7713
▁ask	-10.7716
▁dry	-10.7717
▁reduce	-10.7717
โรงงาน	-10.7719
▁68	-10.772
▁Jay	-10.772
สูงกว่า	-10.772
โซเวียต	-10.7721
▁steel	-10.7724
▁sn	-10.7725
▁2522	-10.7727
การรวมบ้าน	-10.7727
มังงะ	-10.7728
▁ski	-10.7728
▁Luc	-10.7729
▁Tor	-10.7729
▁Head	-10.7729
▁fort	-10.7731
▁buy	-10.7732
▁Char	-10.7732
▁Between	-10.7732
▁Clark	-10.7734
▁locations	-10.7741
▁Mountain	-10.7742
burn	-10.7742
containing	-10.7743
ซ้อน	-10.7744
▁channel	-10.7745
▁ends	-10.7746
▁Hart	-10.7747
gy	-10.7749
aristocrat	-10.7749
ffe	-10.775
ush	-10.775
▁entrance	-10.7753
▁shoot	-10.7754
▁moment	-10.7755
▁Tan	-10.7758
กิ่ง	-10.7758
สั่งให้	-10.7758
▁trains	-10.7761
▁Beyoncé	-10.7761
▁attribut	-10.7762
เอ็กซ์	-10.7763
▁มาร์	-10.7766
▁HMS	-10.7767
การเดินทาง	-10.7768
▁สถาบัน	-10.7768
▁boats	-10.7769
omy	-10.7769
▁2526	-10.7771
▁NHL	-10.7771
▁religion	-10.7776
nar	-10.7778
▁commission	-10.7779
เสนา	-10.778
ติดต่อ	-10.7783
ball	-10.7783
▁core	-10.7785
เพื่อเป็น	-10.7785
▁awards	-10.7786
ลล์	-10.7786
ผูก	-10.7787
▁องค์	-10.7789
▁layer	-10.779
▁Synoecism	-10.7791
แรกที่	-10.7793
▁facilities	-10.7795
ισμ	-10.7797
▁Muslim	-10.7799
Le	-10.7801
ฤดูร้อน	-10.7802
▁ยาว	-10.7803
ใส	-10.7803
▁ชุดที่	-10.7805
บอย	-10.7806
วงดนตรี	-10.7808
▁ผู้เล่นใน	-10.7809
οικ	-10.781
▁sun	-10.781
การควบคุม	-10.7812
▁συν	-10.7818
=""	-10.7825
▁publication	-10.7826
▁Sand	-10.7827
▁Sub	-10.7831
▁พระครู	-10.7832
มรดก	-10.7833
▁lake	-10.7835
อำเภอเมือง	-10.7835
▁Class	-10.7837
▁นิ้ว	-10.7838
ยอง	-10.7839
อัง	-10.7839
ยังมีชีวิตอยู่	-10.784
▁Channel	-10.784
แรม	-10.7841
กลม	-10.7843
▁eyes	-10.7843
▁southwest	-10.7848
▁rapidly	-10.7848
▁ban	-10.7853
▁เป็นการ	-10.7856
▁rated	-10.7856
รินทร์	-10.7857
IS	-10.786
▁ชา	-10.786
▁hip	-10.7862
ิสมอส	-10.7863
หลังคา	-10.7865
โนน	-10.7865
▁Vo	-10.7867
แล้วก็	-10.7867
▁basic	-10.7868
▁shared	-10.7871
▁economy	-10.7873
mont	-10.7875
▁Garden	-10.7875
▁cool	-10.7876
▁painting	-10.7876
die	-10.7877
▁110	-10.7877
▁Comp	-10.7878
▁ซูนอ	-10.7879
พระธาตุ	-10.7882
สวีเดน	-10.7882
แบบใหม่	-10.7884
ฤดูกาลที่	-10.7884
▁1933	-10.7884
▁130	-10.7884
▁Pass	-10.7884
▁Alex	-10.7892
▁ละครโทรทัศน์	-10.7893
่อ	-10.7893
▁Va	-10.7893
โดยมี	-10.7895
cast	-10.7899
▁introduction	-10.7901
▁agent	-10.7901
คณิตศาสตร์	-10.7902
▁perfect	-10.7908
▁code	-10.7909
▁Cape	-10.7911
▁highlight	-10.7911
การเรียนการสอน	-10.7916
▁casualties	-10.7918
▁USA	-10.7921
รูปร่าง	-10.7922
▁Stadium	-10.7922
▁ตลอดจน	-10.7924
วิเศษ	-10.7927
▁1910	-10.7928
▁coal	-10.7928
เมืองในกรีซ	-10.793
เปิดสอน	-10.7931
ราชภัฏ	-10.7933
จึงมี	-10.7933
▁Justice	-10.7933
▁ทางช่อง	-10.7937
▁UTC	-10.7937
ริง	-10.7937
ชัดเจน	-10.7937
ost	-10.7944
เป็นต้น	-10.7946
▁Hay	-10.7947
อ้างว่า	-10.7948
▁object	-10.7951
▁developing	-10.7952
คติ	-10.7954
ยังได้	-10.7955
LA	-10.7956
การขยายชุมชน	-10.7958
▁Television	-10.7961
็ด	-10.7961
จาน	-10.7966
ซิล	-10.7967
▁Main	-10.7968
▁font	-10.7968
ทางหลวงแผ่นดิน	-10.797
%	-10.7971
ฟาโรห์	-10.7973
ซอน	-10.7974
▁กันจน	-10.7975
ต้นฉบับ	-10.7976
▁approved	-10.798
▁Gill	-10.7981
วางแผน	-10.7983
nie	-10.7983
rel	-10.7984
ทั่วทั้งกรีซ	-10.7984
นัส	-10.7986
▁titles	-10.7987
▁แชมป์	-10.7989
ประเสริฐ	-10.7989
▁places	-10.7989
ชุมชนที่	-10.7991
ตาก	-10.7992
▁passage	-10.7992
เปิดเผย	-10.7993
ระหว่างปี	-10.7993
▁คิ	-10.7996
▁Just	-10.7996
án	-10.7997
ทวีป	-10.7997
องค์ประกอบ	-10.7998
▁tank	-10.7998
บวก	-10.7998
ล้าง	-10.8
▁depart	-10.8
หนา	-10.8
▁mean	-10.8002
▁secondary	-10.8003
▁assistant	-10.8005
▁99	-10.8006
ของคน	-10.8006
สะท้อน	-10.8006
ที่ออกฉายในปี	-10.8006
getting	-10.8007
get	-10.8007
พิสูจน์	-10.8008
น้ำตาล	-10.8008
▁Angel	-10.8009
▁remark	-10.8009
ulation	-10.8011
cur	-10.8011
[	-10.8012
ประสบการณ์	-10.8015
▁Bon	-10.8015
▁calls	-10.8016
▁march	-10.8019
▁prepared	-10.8021
▁แม่	-10.8022
งานวิจัย	-10.8025
▁strip	-10.8025
▁เล่ม	-10.8026
พระพุทธศาสนา	-10.8027
เซต	-10.8028
▁journalist	-10.8031
ร่ม	-10.8032
เชีย	-10.8035
รูปแบบไปใช้	-10.8037
สายพันธุ์	-10.8037
▁technology	-10.8041
▁เป็นผู้นำ	-10.8041
▁na	-10.8041
ท้องที่	-10.8043
▁Br	-10.8043
▁fi	-10.8043
▁และมีการรับ	-10.8043
dis	-10.8044
ไม่ให้	-10.8044
bol	-10.8045
▁note	-10.8045
คิดว่า	-10.8047
ราษฎร	-10.8048
bon	-10.8048
ele	-10.8048
▁คะแนน	-10.805
▁Moore	-10.8051
▁Gordon	-10.8056
acc	-10.8057
ชิงแชมป์โลก	-10.8057
จิตใจ	-10.8057
ผู้ปกครอง	-10.8063
▁transfer	-10.8071
▁ob	-10.8072
▁Ze	-10.8076
▁decide	-10.8078
▁resistance	-10.808
▁Key	-10.8081
ชก	-10.8084
dge	-10.8084
ขนม	-10.8086
▁ผลการแข่งขัน	-10.8087
▁structures	-10.8089
ฟังก์ชัน	-10.809
vers	-10.8091
▁promotion	-10.8094
▁Ste	-10.8094
▁literature	-10.8095
▁lb	-10.8099
▁knew	-10.81
▁losses	-10.8101
ア	-10.8101
raw	-10.8103
▁belief	-10.8103
บลู	-10.8104
▁Nor	-10.8106
▁ตั้งแต่ราว	-10.8112
▁Son	-10.8112
▁Vietnam	-10.8118
▁goes	-10.8119
▁77	-10.8119
▁safe	-10.812
▁skin	-10.8121
▁unsuccessful	-10.8123
▁Norway	-10.8124
▁MTV	-10.8125
▁Magazine	-10.8129
อุบลราชธานี	-10.813
▁Cur	-10.813
ย็อง	-10.8132
day	-10.8135
▁promote	-10.8136
▁regions	-10.8137
▁Colonel	-10.8138
▁favour	-10.8138
▁ก่อนที่จะ	-10.8139
▁Revolution	-10.8139
▁cha	-10.814
-5	-10.8141
▁replace	-10.8142
▁actress	-10.8143
BA	-10.8145
",	-10.8147
▁Massachusetts	-10.8149
▁1935	-10.8149
▁Sunday	-10.815
ครอบครอง	-10.8152
ทดลอง	-10.8155
▁Er	-10.8157
▁participate	-10.816
▁daily	-10.816
stra	-10.8162
til	-10.8164
เพอร์	-10.8165
▁อยุธยา	-10.8166
ในภาษา	-10.8166
▁Wa	-10.8167
▁roughly	-10.8169
▁จิ	-10.8171
เริ่มกลายเป็น	-10.8172
▁กรรมการ	-10.8173
ตกแต่ง	-10.8177
cle	-10.8177
เทอ	-10.8179
การเล่น	-10.8179
dan	-10.8181
ดร	-10.8181
เจีย	-10.8182
จอมพล	-10.8182
▁นักเขียน	-10.8183
▁electric	-10.8192
▁anything	-10.8195
▁Eric	-10.8196
ม่วง	-10.8196
▁69	-10.8197
▁stock	-10.8198
▁UN	-10.82
รวมกัน	-10.8201
▁อีก	-10.8201
dal	-10.8205
ที่นั่ง	-10.8209
▁Fame	-10.8209
หลุม	-10.821
▁ประธาน	-10.8212
▁scientific	-10.8213
▁Egypt	-10.8213
▁reflect	-10.8215
▁spin	-10.8216
▁Work	-10.8216
ไช	-10.8216
คุณสมบัติ	-10.8216
เกมส์	-10.8217
วงษ์	-10.8217
maker	-10.8218
ภาคใต้	-10.8221
บางส่วนของกรีซ	-10.8222
▁boy	-10.8222
ชุมชนเมืองใน	-10.8224
▁Ol	-10.8225
ใช้ใน	-10.8227
▁roll	-10.8232
ความรุนแรง	-10.8233
เลก	-10.8233
มายัง	-10.8234
▁poem	-10.8234
ท่าเรือ	-10.8234
▁Theatre	-10.8235
▁Alan	-10.8242
▁rules	-10.8245
▁Singles	-10.8245
▁museum	-10.8246
รก	-10.8247
▁protest	-10.8247
▁establish	-10.8248
▁letters	-10.8249
▁gameplay	-10.825
▁Nu	-10.825
▁injured	-10.825
FC	-10.8251
▁grant	-10.8252
▁urban	-10.8252
หิ	-10.8254
▁67	-10.8254
▁Asian	-10.8255
)||	-10.8255
กระจาย	-10.8259
เพาะ	-10.8259
▁row	-10.8263
ได้ทรง	-10.8264
▁2519	-10.8265
mate	-10.8269
ผู้จัดการ	-10.827
▁Kent	-10.827
▁ตัวอย่าง	-10.8278
อย่างต่อเนื่อง	-10.828
▁employed	-10.8281
▁reputation	-10.8281
▁ที่มี	-10.8281
จะให้	-10.8281
ไล่	-10.8282
py	-10.8284
ough	-10.8288
adding	-10.8289
▁profile	-10.829
กีตาร์	-10.829
เคล	-10.8291
ر	-10.8292
▁talk	-10.8293
mod	-10.8293
ull	-10.8295
รุ่ง	-10.83
▁showing	-10.8305
▁premiere	-10.8305
สัดส่วน	-10.8305
IN	-10.8307
▁Ram	-10.8308
บ่อย	-10.831
ก้าว	-10.8312
ava	-10.8312
san	-10.8314
การกำหนด	-10.8314
http	-10.8315
▁grade	-10.8317
▁perhaps	-10.8319
▁price	-10.8322
มีค่า	-10.8323
เกี่ยวกับการ	-10.8327
เวย์	-10.8328
▁Fair	-10.8332
▁Arab	-10.8333
▁Ali	-10.8334
โรมัน	-10.8336
lay	-10.8339
และเทคโนโลยี	-10.8341
กระดาษ	-10.8343
ได้มี	-10.8346
▁Run	-10.8346
กัง	-10.8348
เอาไว้	-10.8353
อำ	-10.8353
▁ซึ่งจะ	-10.8354
▁sequel	-10.8354
ไปจนถึง	-10.8355
ด้านหลัง	-10.8357
▁1900	-10.8359
แห้ง	-10.8364
▁connected	-10.8365
อินเทอร์เน็ต	-10.8365
กลอง	-10.8366
▁พวก	-10.8367
▁campus	-10.8368
ัล	-10.8369
ฮะ	-10.837
tive	-10.837
▁รายการโทรทัศน์	-10.8371
▁freeway	-10.8371
ography	-10.8371
▁mention	-10.8372
▁Open	-10.8373
ล้ม	-10.8374
เป็นจำนวนมาก	-10.8376
หอย	-10.8376
rop	-10.8377
สนิท	-10.8381
▁powers	-10.8383
weight	-10.8383
▁extension	-10.8383
▁drew	-10.8385
ราษฎร์	-10.8386
▁เขตเลือกตั้งที่	-10.8387
อิส	-10.8387
▁Kentucky	-10.8388
pu	-10.8389
แย	-10.839
La	-10.839
▁depth	-10.839
ในภาพยนตร์	-10.8391
ult	-10.8392
▁หม่อมเจ้า	-10.8393
▁shaped	-10.8393
บุตรชาย	-10.8394
ทำให้เขา	-10.8399
▁sets	-10.8399
▁custom	-10.84
จังหวัดเชียงใหม่	-10.8401
▁bass	-10.8401
▁popularity	-10.8402
matic	-10.8402
เจ้าเมือง	-10.8403
▁Tre	-10.8404
▁เก	-10.8404
อ่าว	-10.8405
▁Naval	-10.8406
ย่างที่เข้าใจกัน	-10.8406
กองทัพบก	-10.8407
นั้นมี	-10.8407
วัฒนา	-10.8409
ในยุคคลาสสิค	-10.841
ปัก	-10.841
▁internal	-10.8411
▁purchase	-10.8411
ฟอร์ด	-10.8415
gh	-10.8416
เกิดขึ้นแล้ว	-10.8421
collapse	-10.8422
▁converted	-10.8425
ika	-10.8426
▁distinguish	-10.8426
▁stadium	-10.8426
▁บน	-10.8427
▁mono	-10.8429
▁2518	-10.8432
เทศ	-10.8435
▁Network	-10.8435
ในตำแหน่ง	-10.8435
โค้ง	-10.8435
▁ฯลฯ	-10.8437
▁register	-10.8439
▁chapter	-10.844
hn	-10.8441
▁missing	-10.8442
พาน	-10.8444
▁load	-10.8444
▁Poland	-10.8445
กอน	-10.8446
urbanization	-10.8449
ผู้บริหาร	-10.845
▁themes	-10.8453
tch	-10.8454
▁Hard	-10.8456
▁knowledge	-10.8458
จัน	-10.8459
▁โดยเป็น	-10.8463
▁Six	-10.8464
ตอบ	-10.8464
▁Sydney	-10.8464
▁journey	-10.8466
▁1951	-10.8468
▁Forest	-10.8469
lea	-10.8473
การทดลอง	-10.8474
▁(2	-10.8475
เข้ม	-10.8476
สัญชาติ	-10.8476
dri	-10.8477
รณ	-10.8477
▁participat	-10.8479
т	-10.848
▁cells	-10.8484
รับความหมายอ	-10.8484
▁ขอ	-10.8485
▁stream	-10.8485
เบส	-10.8488
สูญเสีย	-10.8488
เป็นประธาน	-10.8489
▁honour	-10.8489
เป็นพระ	-10.849
ean	-10.8492
▁chain	-10.8492
ชวน	-10.8494
▁planning	-10.8499
ประกัน	-10.8501
ก่อนหน้านี้	-10.8501
▁นอกจากนี้ยัง	-10.8502
ที่กำลัง	-10.8502
ัว	-10.8503
▁adaptation	-10.8504
พุ	-10.8504
▁แอน	-10.8505
คุ้มครอง	-10.8505
เฟร	-10.8506
▁cited	-10.8508
อิทธิพล	-10.8508
เบร	-10.8508
▁ขนาด	-10.851
▁reasons	-10.8516
การคัดเลือก	-10.8517
ในสหรัฐอเมริกา	-10.8519
▁อายุ	-10.8519
วอน	-10.8519
▁festival	-10.8521
▁association	-10.8523
รองรับ	-10.8526
zu	-10.8527
▁Today	-10.8527
หญ้า	-10.8527
▁easily	-10.8527
สุโขทัย	-10.8529
ที่ว่า	-10.8529
▁Beach	-10.8532
ular	-10.8533
▁โซ	-10.8534
พรีเมียร์ลีก	-10.8535
▁Anna	-10.8535
โคร	-10.8536
▁existence	-10.8538
▁spoke	-10.8539
▁collected	-10.8539
พร้อมกัน	-10.8542
▁shift	-10.8543
เงื่อนไข	-10.8543
▁Korea	-10.8543
ฉายา	-10.8545
▁พอถึงสมัย	-10.8546
เสร็จ	-10.8547
▁distinct	-10.8548
▁reading	-10.8549
▁Thailand	-10.8549
บทกวี	-10.8551
▁ผู้ที่	-10.8557
operating	-10.856
การเปลี่ยน	-10.8561
ที่ผ่านมา	-10.8561
An	-10.8561
▁limit	-10.8561
bit	-10.8563
pper	-10.8566
▁ลี	-10.8567
▁wish	-10.8568
▁plane	-10.857
▁ระหว่างวันที่	-10.8571
จีเอ็มเอ็ม	-10.8573
▁discuss	-10.8574
▁Olympics	-10.8577
▁responded	-10.8577
thy	-10.8578
บอ	-10.858
▁poly	-10.858
ดอย	-10.8586
▁turning	-10.8589
มะเร็ง	-10.859
ราบ	-10.8591
ไปได้	-10.8591
▁bus	-10.8592
▁brothers	-10.8593
▁นำแสดงโดย	-10.8594
จักรวาล	-10.8594
กึ่ง	-10.8594
▁safety	-10.8597
วด	-10.8598
▁hundred	-10.8598
ที่เกี่ยวข้องกับ	-10.8599
ลูกชาย	-10.86
nal	-10.8602
onia	-10.8605
performing	-10.8607
▁Hav	-10.8608
รอบชิงชนะเลิศ	-10.8608
tle	-10.861
▁personnel	-10.861
▁pack	-10.8611
ปฏิ	-10.8612
รับประทาน	-10.8613
ศุภ	-10.8614
ori	-10.8616
บูรณะ	-10.8617
▁ray	-10.8619
ของโซลอน	-10.8619
▁ 	-10.8623
aba	-10.8623
ของญี่ปุ่น	-10.8624
ประสงค์	-10.8627
ไทยลีก	-10.8632
▁sites	-10.8633
ฑ	-10.8634
▁Trans	-10.8635
ame	-10.8636
▁Here	-10.8638
ของนครรัฐที่	-10.8639
นซ์	-10.8643
hood	-10.8645
▁ต่อมาในปี	-10.8646
SP	-10.8646
ของรัฐบาล	-10.8653
iya	-10.8654
▁profit	-10.8655
แร่	-10.8655
▁decade	-10.8656
เพลิง	-10.8657
▁theatre	-10.8657
านุ	-10.8659
เต้น	-10.8659
▁grey	-10.8661
▁Mont	-10.8661
م	-10.8662
▁sustained	-10.8668
#	-10.867
ความผิด	-10.8671
ในรัฐ	-10.8673
ศิ	-10.8674
พัฒนาไปสู่รูปแบบ	-10.8674
ตง	-10.8678
▁cent	-10.8681
aga	-10.8683
▁Premier	-10.8685
▁surround	-10.8686
ลาก	-10.8688
วอร์	-10.8688
รุนแรง	-10.8688
รับบท	-10.8695
▁Seven	-10.8695
ชัก	-10.8697
▁Byzantine	-10.8699
eo	-10.87
▁1934	-10.8701
▁พิ	-10.8702
▁78	-10.8702
ไปเป็น	-10.8702
cker	-10.8702
ในเกม	-10.8703
จร	-10.8704
▁learned	-10.8705
▁connect	-10.8706
▁charts	-10.8707
คิง	-10.8707
▁pit	-10.8708
ซากิ	-10.8708
ชล	-10.8709
▁carrying	-10.8709
▁buried	-10.8713
▁Guard	-10.8715
▁Je	-10.8716
สามี	-10.8717
▁headed	-10.8717
AT	-10.8718
ging	-10.8718
▁Dance	-10.8718
MS	-10.8719
ศก	-10.872
▁Media	-10.8721
มีส่วน	-10.8722
าภรณ์	-10.8722
▁declin	-10.8723
▁youth	-10.8725
▁Iron	-10.8726
ตัวของชุมชนเมือง	-10.8727
ient	-10.8728
▁Cap	-10.8732
▁j	-10.8735
▁Sports	-10.8736
acy	-10.8736
▁alien	-10.8736
ปลัด	-10.8737
▁heads	-10.8738
▁ซึ่งแสดงว่า	-10.8738
ban	-10.8739
▁moderate	-10.8739
ona	-10.8739
▁Philip	-10.8739
▁sentence	-10.8741
tr	-10.8743
▁เช่นเดียวกับ	-10.8746
ER	-10.8746
นำโดย	-10.8747
อาณาเขต	-10.8747
▁arranged	-10.8749
น้ำแข็ง	-10.8749
รัม	-10.8751
▁agree	-10.8752
▁แต่ไม่	-10.8755
▁Ac	-10.8756
▁Kat	-10.8758
เศรษฐศาสตร์	-10.876
สมควร	-10.8762
▁Francis	-10.8762
▁2527	-10.8765
กันเป็นเมือง	-10.8767
▁การศึกษา	-10.8767
▁evening	-10.8769
ets	-10.877
▁Wing	-10.8771
▁reli	-10.8773
หลุยส์	-10.8773
▁เกิดการขยาย	-10.8777
play	-10.8778
▁ขึ้น	-10.8779
▁entry	-10.8779
▁1912	-10.8781
ที่ไม่มี	-10.8784
▁ประเทศญี่ปุ่น	-10.8785
ัท	-10.8786
เมฆ	-10.8789
▁verse	-10.879
พระราชพิธี	-10.8791
เซา	-10.8793
▁Last	-10.8793
▁Max	-10.8794
▁exhibit	-10.8794
▁technical	-10.8794
▁พระมหากษัตริย์	-10.8795
earliest	-10.8797
▁คิม	-10.8799
มาตั้งแต่	-10.88
ริว	-10.8804
▁จะมี	-10.8805
ครอบคลุม	-10.8807
ปทุม	-10.8808
ศักดิ์สิทธิ์	-10.8809
ฌ	-10.881
▁เอ็ม	-10.881
▁ตำแหน่ง	-10.8812
▁Adam	-10.8812
▁Mos	-10.8814
▁ทอง	-10.8816
โต้	-10.8818
ลูกสาว	-10.8819
▁Library	-10.882
▁weakened	-10.8821
▁Ag	-10.8823
dar	-10.8824
ปก	-10.8824
ไทยเป็นการทั่วไป	-10.8824
ประเด็น	-10.8827
2)	-10.8833
เมดิเตอร์เรเนียน	-10.8836
▁producing	-10.8836
fall	-10.8837
▁ได	-10.8837
▁Simpsons	-10.8837
อ้าง	-10.8837
▁Story	-10.8837
hill	-10.8838
▁candidate	-10.8838
4,	-10.8838
▁orbit	-10.8845
ก่อนหน้า	-10.8846
▁ตั้ง	-10.8846
ลิก	-10.8846
ริ่มมาอาศัยอยู่	-10.8848
▁Spe	-10.8848
▁address	-10.8849
▁2525	-10.8851
▁Maryland	-10.8851
▁Sk	-10.8853
▁2524	-10.8853
Al	-10.886
บริสุทธิ์	-10.8862
▁2528	-10.8863
พระพุทธ	-10.8868
คนเดียว	-10.887
▁FA	-10.8872
เป็นนัก	-10.8872
คชาวกรีกเ	-10.8874
▁Die	-10.8875
▁160	-10.8876
ขนส่ง	-10.8876
พระธรรม	-10.8882
กองทุน	-10.8883
▁retained	-10.8884
lf	-10.8885
ttle	-10.8886
▁landfall	-10.8886
▁Memorial	-10.889
วดี	-10.8891
▁cars	-10.8891
มัง	-10.8891
▁brand	-10.8891
สมัคร	-10.8892
▁baseball	-10.8893
eri	-10.8894
▁scheme	-10.8895
▁applied	-10.8897
ศิลป	-10.8899
▁Tony	-10.8901
nis	-10.8901
▁items	-10.8902
▁ในยุคอาร์เคอิ	-10.8902
ได้สำเร็จ	-10.8905
เยี่ยม	-10.8905
หลากหลาย	-10.8908
pl	-10.8911
นักวิชาการ	-10.8911
▁trust	-10.8912
▁lu	-10.8916
DS	-10.8916
ราชินี	-10.8917
อภิ	-10.8919
▁der	-10.8921
▁affect	-10.8923
▁=====	-10.8923
▁Germans	-10.8923
runner	-10.8924
▁battery	-10.8927
grad	-10.8927
▁ศิริ	-10.8927
ไปสู่	-10.8927
อิสลาม	-10.8927
▁Five	-10.8928
ดอ	-10.8933
ทัวร์	-10.8933
▁Jeff	-10.8936
ความเห็น	-10.8936
▁กอง	-10.8938
gor	-10.894
เฉลี่ย	-10.894
ตลก	-10.894
จำลอง	-10.8941
▁73	-10.8941
▁coastal	-10.8944
tells	-10.8946
▁Norman	-10.8946
н	-10.8947
ปารีส	-10.8947
margin	-10.8947
▁Jan	-10.895
▁พระองค์ทรง	-10.8954
แปร	-10.8956
ปรากฏการณ์	-10.8957
อิจิ	-10.8957
แทรก	-10.8958
ในรูปของ	-10.8958
ที่ต้อง	-10.8959
▁waters	-10.8959
▁link	-10.896
ก็เป็น	-10.896
▁เส้น	-10.8961
▁violence	-10.8961
▁ออก	-10.8961
เป็นหลัก	-10.8961
pre	-10.8962
▁94	-10.8963
▁arm	-10.8964
ตั้งแต่วันที่	-10.8964
▁ระดับ	-10.8964
vert	-10.8965
300	-10.8965
down	-10.8968
อาหรับ	-10.8969
สปีชีส์	-10.897
▁Douglas	-10.897
น้องชาย	-10.8971
เกต	-10.8972
ศรัทธา	-10.8973
ก่อให้เกิด	-10.8975
▁raise	-10.8975
็ก	-10.8975
nch	-10.8976
▁manner	-10.8976
▁พลเอก	-10.8976
ระทรวงศึกษาธิการ	-10.8976
ได้จาก	-10.8977
การเลือก	-10.8977
▁lose	-10.8984
อาย	-10.8987
ประเทศญี่ปุ่น	-10.8989
▁Dragon	-10.8991
▁Hamilton	-10.8992
รำ	-10.8994
นั่น	-10.8994
ถือว่าเป็น	-10.8995
บัญญัติ	-10.8995
▁96	-10.8997
=3|	-10.9002
▁weak	-10.9004
▁indicated	-10.9004
▁Au	-10.9008
ประจำปี	-10.9009
ล็อก	-10.901
ส้ม	-10.9011
▁delivered	-10.9012
▁วง	-10.9014
ison	-10.9014
▁stopped	-10.9015
▁classic	-10.9016
reg	-10.9017
▁organis	-10.9017
mmer	-10.9018
▁da	-10.9019
▁Princess	-10.902
ออส	-10.902
สไลด์	-10.902
สารสนเทศ	-10.9023
สวย	-10.9024
▁filled	-10.9025
กัล	-10.9028
แพร	-10.9029
▁hop	-10.903
▁send	-10.903
บิล	-10.9032
ลิขสิทธิ์	-10.9032
แน่นอน	-10.9034
หมาก	-10.9034
เกีย	-10.9034
กระทรวงมหาดไทย	-10.9035
พระพุทธเจ้า	-10.9035
ขยายชุมชนเมือง	-10.9038
สองคน	-10.9038
ural	-10.9038
ray	-10.9042
▁Mulder	-10.9042
▁Ren	-10.9045
tract	-10.9045
yer	-10.9047
▁Fre	-10.9048
▁rich	-10.9048
▁distribution	-10.9048
ト	-10.9049
โปรตีน	-10.9049
กิตติ	-10.9049
อักเสบ	-10.9051
ของมัน	-10.9052
▁Real	-10.9053
เนิน	-10.9057
▁74	-10.9058
ประเทศฝรั่งเศส	-10.9058
▁transition	-10.906
หายไป	-10.906
พระราชธิดา	-10.906
ดวงอาทิตย์	-10.9061
ปกป้อง	-10.9062
บุคคลจากโรงเรียน	-10.9063
▁จง	-10.9063
ความถี่	-10.9063
▁habitat	-10.9065
กับการ	-10.9066
สกี	-10.9066
▁glass	-10.9068
เช่นเดียวกับ	-10.9069
▁details	-10.907
แอนิเมชัน	-10.907
ได้ทำการ	-10.9073
การก่อตั้งหรือ	-10.9075
▁1932	-10.9076
▁doctor	-10.9077
▁Centre	-10.9078
ode	-10.908
เป็นที่ตั้งของ	-10.908
ด้านล่าง	-10.9081
▁repair	-10.9081
แก๊ส	-10.9082
▁argument	-10.9083
▁exercise	-10.9085
▁parties	-10.9086
ในประเทศญี่ปุ่น	-10.9087
▁independence	-10.9092
นำเสนอ	-10.9093
แชมป์โลก	-10.9094
itz	-10.9094
ป่วย	-10.9094
โอดิสซีย์	-10.9094
แนวทาง	-10.9095
คำนวณ	-10.9096
▁Howard	-10.9098
เฉียงเหนือ	-10.9099
มีปัจจัยของ	-10.9099
▁frame	-10.9103
▁projects	-10.9103
ctor	-10.9104
▁Sim	-10.9105
ึก	-10.9109
▁models	-10.911
▁supplies	-10.9111
▁soul	-10.9112
ศัพท์	-10.9115
ي	-10.9116
หุ่นยนต์	-10.9116
▁Mas	-10.9116
nder	-10.9121
เร่ง	-10.9121
▁bird	-10.9122
с	-10.9122
▁ชั่วโมง	-10.9123
rk	-10.9124
ครั้งแรกใน	-10.9125
เรียว	-10.9125
room	-10.9125
เตือน	-10.9125
มีประสิทธิภาพ	-10.9126
ได้มา	-10.9128
▁Med	-10.9131
▁Count	-10.9135
ott	-10.9136
settled	-10.9136
ปรากฏให้เห็น	-10.9137
▁entitled	-10.9138
▁credit	-10.9141
▁plate	-10.9142
▁views	-10.9142
▁ผู้นำ	-10.9142
AM	-10.9147
▁stages	-10.9148
uch	-10.9148
ยัน	-10.915
ert	-10.915
วัต	-10.9151
▁จุด	-10.9151
จากมหาวิทยาลัย	-10.9155
เปรียบเทียบ	-10.9155
mis	-10.9159
▁Sar	-10.916
สาขาวิชา	-10.9162
▁Adams	-10.9163
สุนัข	-10.9164
▁prompt	-10.9165
การนำ	-10.917
▁อาจารย์	-10.9171
จารึก	-10.9174
ต่อสู้กับ	-10.9176
แส	-10.9178
▁store	-10.918
▁apparent	-10.9181
▁Den	-10.9181
ทรัพยากร	-10.9183
▁crown	-10.9184
ที่มา	-10.9184
ซอง	-10.9185
▁fresh	-10.9187
▁Pla	-10.9187
▁Ci	-10.9187
▁shore	-10.9188
เมืองหรือนครรัฐ	-10.9189
focused	-10.919
ฝูง	-10.9191
▁Hell	-10.9191
▁string	-10.9191
อาญา	-10.9193
หาร	-10.9197
นนท์	-10.9198
▁proposal	-10.9199
▁fin	-10.9199
▁กก	-10.92
เป็นอาหาร	-10.9203
rm	-10.9204
น่าน	-10.9204
หะ	-10.9206
▁hot	-10.921
บทความ	-10.9213
▁print	-10.9218
▁exit	-10.9219
▁clean	-10.9219
▁prisoners	-10.9219
aries	-10.922
▁Hungarian	-10.9223
▁touch	-10.9223
หมุน	-10.9224
▁เสียง	-10.9225
แห่งหนึ่ง	-10.9226
ชั่ว	-10.9227
ผู้ผลิต	-10.923
▁Les	-10.9231
ภาคเหนือ	-10.9231
▁Bush	-10.9231
▁studi	-10.9232
▁bought	-10.9234
รม	-10.9235
โล่	-10.9236
▁behavior	-10.9237
บก	-10.9237
▁Family	-10.9242
▁retain	-10.9245
ธน	-10.9246
▁global	-10.9247
sur	-10.9247
นิติ	-10.9249
การป้องกัน	-10.925
▁ศาสตราจารย์	-10.925
มิส	-10.9251
▁bottom	-10.9253
▁วิดีโอเกม	-10.9253
การขนส่ง	-10.9256
เกียรติยศ	-10.9257
▁Concert	-10.9257
นอร์เวย์	-10.9257
▁Tar	-10.9258
เยือน	-10.9259
เป็นอย่างมาก	-10.9259
ith	-10.926
▁1921	-10.9261
▁Wars	-10.9262
▁Tower	-10.9263
mber	-10.9264
▁Hand	-10.9265
เที่ยว	-10.9267
▁Prior	-10.9267
ฮาร์	-10.927
▁format	-10.9271
▁Nick	-10.9272
เราได้พบเห็น	-10.9274
ชื่อของ	-10.9274
▁โบ	-10.9277
▁kingdom	-10.9277
▁รอง	-10.9278
โชติ	-10.9281
ขั้นตอน	-10.9281
▁(18	-10.9282
▁threatened	-10.9283
▁Jon	-10.9283
ไว้ว่า	-10.9284
ห่างจาก	-10.9284
กระจก	-10.9284
▁essential	-10.9286
ส่วนมาก	-10.9287
มาลา	-10.9288
ในเวลาต่อมา	-10.929
มิวสิกวิดีโอ	-10.9291
▁survived	-10.9292
ที่มีการ	-10.9292
ผู้ว่าราชการ	-10.9293
▁Roger	-10.9293
▁ruled	-10.9293
▁step	-10.9294
▁beach	-10.9296
▁Gre	-10.9297
วัล	-10.9297
▁Now	-10.9297
ศีรษะ	-10.9298
ington	-10.9299
ชัยชนะ	-10.9302
▁knots	-10.9303
ito	-10.9304
ประกาศว่า	-10.9305
pan	-10.9306
poli	-10.9308
ซอฟต์แวร์	-10.9308
fold	-10.931
▁towns	-10.9312
ก็ถูก	-10.9313
▁politics	-10.9315
kar	-10.9315
โชค	-10.9317
aj	-10.9317
▁spirit	-10.9317
ฤดูหนาว	-10.9318
▁fashion	-10.9319
▁Kennedy	-10.9323
▁ensure	-10.9324
บางอย่าง	-10.9324
▁flank	-10.9325
ien	-10.9326
ขณะนั้น	-10.9326
aaa	-10.9329
▁substantial	-10.933
▁Allen	-10.9338
ยาวนาน	-10.9338
ลงใน	-10.9338
ต่างกัน	-10.9339
▁Instead	-10.9339
▁แต่ในมหากาพย์	-10.934
▁everything	-10.934
▁Jordan	-10.9342
▁equivalent	-10.9342
▁หัวหน้า	-10.9344
ทิศทาง	-10.9345
▁replacement	-10.9346
uz	-10.9347
▁ดาว	-10.9351
กันดั้ม	-10.9352
▁ลู	-10.9353
วิวัฒนาการ	-10.9356
▁specifically	-10.9357
в	-10.9357
▁Anne	-10.9358
CE	-10.936
kan	-10.936
▁1913	-10.9361
▁1926	-10.9363
ทางเพศ	-10.9364
▁Santa	-10.9365
อิม	-10.9365
▁1922	-10.9366
▁shell	-10.9366
00,000	-10.9367
ผ่านทาง	-10.9369
ที่เหลือ	-10.9371
Ch	-10.9372
เลส	-10.9372
▁Temple	-10.9372
▁Hal	-10.9372
ในศตวรรษที่	-10.9376
TA	-10.9377
▁ชู	-10.9377
▁Hitler	-10.9378
▁assist	-10.9381
▁87	-10.9381
วัว	-10.9383
คู่กับ	-10.9387
▁Norwegian	-10.9387
▁ตารางกิโลเมตร	-10.9387
▁relief	-10.9387
▁cra	-10.9388
ก็ไม่	-10.9389
ได้สร้าง	-10.939
old	-10.939
อิหร่าน	-10.9391
จัดทำ	-10.9392
▁และให้	-10.9392
ความสำเร็จ	-10.9392
▁84	-10.9393
▁2523	-10.9393
St	-10.9394
oikos	-10.9394
▁brain	-10.9396
บรม	-10.9397
▁reception	-10.9404
ทาส	-10.9405
วิก	-10.9405
ド	-10.9405
▁nomination	-10.9406
▁1911	-10.9406
หลักการ	-10.9407
▁programs	-10.9407
ivity	-10.9407
▁แปลว่าหมู่บ้าน	-10.9408
▁duty	-10.9409
▁owner	-10.941
ู่	-10.9412
คะแนนเสียง	-10.9412
▁us	-10.9414
ยอ	-10.9414
สาน	-10.9414
ความร่วมมือ	-10.9416
เคียว	-10.9416
▁IGN	-10.9417
รัล	-10.9418
มีเพียง	-10.9422
▁door	-10.9423
▁teacher	-10.9425
ทศวรรษ	-10.9426
แห่งปี	-10.9426
▁engines	-10.9426
ที่โรงเรียน	-10.9428
น้ำตก	-10.9429
▁กรีซ	-10.943
▁recalled	-10.9431
ฝาก	-10.9431
ไม่ทราบ	-10.9432
▁Federal	-10.9436
▁Report	-10.9438
coming	-10.9441
▁portrayed	-10.9441
ในอนาคต	-10.9442
▁crime	-10.9444
och	-10.9444
▁ซึ่งเรียกว่า	-10.9446
▁academic	-10.9446
▁Camp	-10.9447
สู	-10.9448
▁micro	-10.945
อยคอส	-10.9452
ตามมาตรา	-10.9453
▁Bruce	-10.9458
wing	-10.9463
ความปลอดภัย	-10.9463
▁capable	-10.9463
▁ขณะ	-10.9464
▁bands	-10.9466
ความแตกต่าง	-10.9468
โหมด	-10.9468
▁Nations	-10.9468
▁Human	-10.9469
▁images	-10.947
กั้น	-10.9472
ทีมที่	-10.9477
กัด	-10.9478
▁breeding	-10.9478
▁1927	-10.948
▁วี	-10.948
izing	-10.9481
▁Recording	-10.9481
ทางเศรษฐกิจ	-10.9481
▁Jun	-10.9485
▁สหรัฐอเมริกา	-10.9488
ของจีน	-10.9488
▁airport	-10.9488
ประยุกต์	-10.9489
bul	-10.949
มีชื่อเสียง	-10.9493
พระทัย	-10.9493
สามัคคี	-10.9494
▁sufficient	-10.9496
คริสเตียน	-10.9496
▁importance	-10.9497
lav	-10.9501
▁laws	-10.9502
fitted	-10.9502
สำรอง	-10.9504
▁Ryan	-10.9505
เบื้องต้น	-10.9505
dale	-10.9508
lim	-10.9508
สีน้ำเงิน	-10.9509
▁Senator	-10.9509
▁Gate	-10.9509
▁arch	-10.951
hol	-10.9514
แลน	-10.9522
พ้น	-10.9525
การเคลื่อนไหว	-10.9525
แอบ	-10.9526
ความเสียหาย	-10.9528
▁และต่อมา	-10.9528
▁Mexican	-10.9529
▁desire	-10.9529
ุ	-10.953
press	-10.9531
▁Winter	-10.9532
▁establishment	-10.9532
▁sections	-10.9532
▁description	-10.9532
ไผ่	-10.9534
▁admitted	-10.9534
ล้วน	-10.9535
อาจมี	-10.9536
หัวข้อ	-10.9536
หลังจากที่	-10.9538
ยกเว้น	-10.9538
.30	-10.9539
▁remainder	-10.9541
มีชนชั้นสูง	-10.9541
อัม	-10.9541
▁rose	-10.9542
เวล	-10.9542
▁Cam	-10.9546
ute	-10.9546
▁hits	-10.9547
volving	-10.955
กรีซ	-10.955
ทุกอย่าง	-10.9551
ク	-10.9551
▁departure	-10.9555
anger	-10.9555
lot	-10.9556
▁chorus	-10.9556
NA	-10.9556
สร้างสรรค์	-10.9558
▁equipped	-10.9559
watched	-10.9561
onic	-10.9562
ระดับปริญญาตรี	-10.9562
การสื่อสาร	-10.9562
เคอร์	-10.9563
▁arrested	-10.9565
▁lands	-10.9565
▁และเมื่อ	-10.9565
รอส	-10.9567
หัวเมือง	-10.9568
▁Development	-10.957
▁Hor	-10.957
▁tunnel	-10.9571
ille	-10.9572
▁3)	-10.9573
zer	-10.9573
▁fit	-10.9577
▁88	-10.9577
▁Dam	-10.9577
▁ล้านบาท	-10.9579
▁แต่เป็นโลกที่	-10.9579
▁ผ่าน	-10.9579
fin	-10.958
๊อ	-10.9581
ไม่ได้มีการกล่าว	-10.9583
▁inform	-10.9584
คนไข้	-10.9588
สวยงาม	-10.9588
▁invited	-10.9588
▁71	-10.9588
▁Constitution	-10.9589
▁installed	-10.959
กระโดด	-10.9591
-3	-10.9592
▁Horse	-10.9593
▁classification	-10.9593
ประโยค	-10.9594
▁intention	-10.9596
ทางสังคม	-10.9596
▁Sc	-10.9598
▁Mag	-10.9599
fish	-10.9599
ของมหาวิทยาลัย	-10.9599
แต่งงาน	-10.9599
▁sole	-10.96
IC	-10.9602
ได้เข้า	-10.9602
ต่ำกว่า	-10.9603
▁actual	-10.9603
▁79	-10.9604
▁crossed	-10.9605
อัคร	-10.9606
คว้าแชมป์	-10.9612
รถไฟฟ้า	-10.9614
▁picture	-10.9615
▁Kevin	-10.9615
▁writes	-10.9616
หรือครัวเรือน	-10.9617
▁๑๐	-10.9618
▁income	-10.962
▁สิ่งก่อสร้างใน	-10.9621
ลุง	-10.9621
▁mix	-10.9623
▁Yo	-10.9624
ปรากฏใน	-10.9624
▁Beau	-10.9624
De	-10.9626
▁drug	-10.9626
▁lane	-10.9626
▁recommended	-10.9627
ทดสอบ	-10.9627
▁ridge	-10.9629
▁ในโลกของ	-10.9629
อด	-10.963
ซาก	-10.963
▁Plan	-10.963
เกษตรศาสตร์	-10.963
▁ill	-10.9633
▁ประเทศไทย	-10.9634
สงบ	-10.9637
สมเด็จพระเจ้า	-10.9638
มหากาพย์อีเลียด	-10.9638
▁inspiration	-10.964
wick	-10.964
มัส	-10.9641
ปรากฏตัว	-10.9642
▁instance	-10.9642
ผนัง	-10.9642
▁convoy	-10.9647
การวิจัย	-10.9648
ปริศนา	-10.965
char	-10.965
▁แขวง	-10.965
▁humans	-10.9654
ิกา	-10.9656
▁snow	-10.9656
▁เรียกว่า	-10.9656
▁meters	-10.9659
▁monument	-10.966
RA	-10.9661
นั้นจะ	-10.9662
▁ล้านคน	-10.9665
▁charged	-10.9665
ตรัส	-10.9665
ใบอนุญาต	-10.9666
▁หลวง	-10.9666
▁fly	-10.9667
▁emotional	-10.9668
แห	-10.967
วินาที	-10.967
▁Nazi	-10.9671
การท่องเที่ยว	-10.9672
เกลือ	-10.968
TS	-10.9681
▁Military	-10.9688
▁handle	-10.9689
▁ก็ได้	-10.9689
▁males	-10.9689
▁designs	-10.9695
▁remix	-10.9696
▁tanks	-10.9697
วิชาชีพ	-10.9698
hum	-10.9698
▁1929	-10.97
ซิง	-10.9704
▁organ	-10.9707
▁Indiana	-10.9708
voted	-10.9709
teen	-10.9709
ON	-10.9709
ออกฉาย	-10.971
▁ago	-10.971
eck	-10.9711
▁Pol	-10.9712
pho	-10.9712
▁1928	-10.9715
▁AD	-10.9715
▁|2	-10.9716
▁products	-10.9717
▁le	-10.9718
▁trail	-10.9718
ความยาว	-10.9719
วิเคราะห์	-10.9719
▁acts	-10.9722
มืด	-10.9722
RI	-10.9723
ux	-10.9724
stood	-10.9724
ปัจจุบันคือ	-10.9724
แม่ทัพ	-10.9727
д	-10.9729
▁union	-10.973
▁poet	-10.9731
บ้านเมือง	-10.9732
rap	-10.9733
gram	-10.9735
มีโอกาส	-10.9736
▁Dean	-10.974
▁freedom	-10.974
▁speak	-10.9741
pel	-10.9743
ชุม	-10.9743
มุข	-10.9744
aking	-10.9746
▁relations	-10.9748
นิวเคลียร์	-10.975
สหประชาชาติ	-10.9755
การเพิ่ม	-10.9756
ความสนใจ	-10.9757
▁offers	-10.9757
▁praise	-10.9757
▁dress	-10.9761
มัธยมศึกษา	-10.9762
own	-10.9763
▁someone	-10.9764
▁คู่	-10.9765
เจ้านาย	-10.9765
สำคัญของ	-10.9765
ú	-10.9767
▁82	-10.9767
els	-10.9767
isation	-10.9769
▁objects	-10.9769
▁exception	-10.9769
▁dispute	-10.977
▁ว	-10.9772
▁และอำเภอ	-10.9772
osaurus	-10.9772
ดรา	-10.9773
ธนบุรี	-10.9773
ไว้ที่	-10.9775
ซิตี	-10.9775
3||	-10.9775
ไร่	-10.9776
ีตสมัย	-10.9777
▁trouble	-10.9777
▁เอส	-10.9779
▁98	-10.9779
▁pattern	-10.9781
ัฟ	-10.9782
เปลี่ยนชื่อ	-10.9783
อับ	-10.9783
เทศบาลเมือง	-10.9785
▁อู	-10.9788
▁Phil	-10.9789
▁funds	-10.9789
▁preparation	-10.9789
▁grand	-10.9793
ในนครรัฐคร	-10.9796
▁1924	-10.9796
แว	-10.9797
▁Guide	-10.98
วิจิตร	-10.9801
▁See	-10.9802
▁identity	-10.9806
▁Third	-10.9806
▁rural	-10.9812
2||	-10.9812
リ	-10.9813
▁attain	-10.9815
ผู้สมัคร	-10.9817
▁regional	-10.9817
▁concerns	-10.9817
ต้องใช้	-10.9817
อู่	-10.9817
▁bra	-10.9818
ปริญญา	-10.9818
▁rank	-10.9819
▁บุคคล	-10.9819
▁Weekly	-10.982
▁81	-10.982
▁Ur	-10.9822
▁decrease	-10.9824
▁kick	-10.9826
▁2023	-10.9826
▁Foundation	-10.9827
▁driving	-10.9829
▁connection	-10.9829
▁drawing	-10.9832
iest	-10.9832
พัฒน์	-10.9833
AS	-10.9835
มาเรีย	-10.9838
▁eighth	-10.9838
อน	-10.9839
▁duties	-10.984
สำเร็จการศึกษา	-10.9841
▁1931	-10.9844
ครองราชย์	-10.9845
ประสาน	-10.9846
ํา	-10.9848
▁assert	-10.9848
▁เทพ	-10.985
▁Illinois	-10.9852
▁Sin	-10.9854
พระธิดา	-10.9854
ที่บ้าน	-10.9857
mic	-10.9857
▁๒๔	-10.9859
clo	-10.986
tric	-10.986
เดือนกุมภาพันธ์	-10.9865
▁ถือเป็น	-10.9868
▁dated	-10.987
เฉลิมพระเกียรติ	-10.987
▁Bla	-10.9871
▁Andy	-10.9871
▁Scully	-10.9873
ima	-10.9874
สหภาพ	-10.9877
▁segment	-10.9878
มอญ	-10.9878
แปลว่า	-10.9881
▁เน	-10.9882
หลวงพ่อ	-10.9882
▁earth	-10.9882
ี้ย	-10.9885
▁adapted	-10.9889
▁Rolling	-10.989
▁Corporation	-10.9891
ดวงจันทร์	-10.9892
พระเยซู	-10.9896
▁Gun	-10.9897
▁armour	-10.9897
เที่ยวบิน	-10.9897
▁Stanley	-10.9897
เบิร์ก	-10.9899
ปรากฏว่า	-10.9901
▁describing	-10.9902
▁conclusion	-10.9902
▁NBA	-10.9902
▁อันเป็น	-10.9905
▁tall	-10.9909
▁Mega	-10.9909
rell	-10.9911
▁หลักฐานแรกสุด	-10.9912
-8	-10.9912
tsu	-10.9915
ยกทัพ	-10.9916
ท็อป	-10.9917
ทริ	-10.9917
วาร์	-10.9917
บริจาค	-10.9917
อัตโนมัติ	-10.9919
▁designer	-10.9921
OC	-10.9924
▁Morgan	-10.9925
เพลงนี้	-10.9925
ชาวเยอรมัน	-10.9927
วรรค	-10.9927
▁ครู	-10.9927
cus	-10.993
ense	-10.993
มุสลิม	-10.9931
▁seed	-10.9933
ชาร์	-10.9939
▁วันเกิด	-10.9939
มหาราช	-10.994
ลุก	-10.9941
fu	-10.9942
kins	-10.9942
เป็นเจ้าของ	-10.9943
ว่ายน้ำ	-10.9943
considerable	-10.9944
▁belt	-10.9944
▁sc	-10.9944
กิ่งอำเภอ	-10.9946
อะตอม	-10.9946
มีความยาว	-10.9953
Mar	-10.9953
สุดท้ายของ	-10.9954
▁สาธารณรัฐ	-10.9962
▁Ann	-10.9963
kes	-10.9965
ของการเกิดขึ้น	-10.9965
ites	-10.9968
ids	-10.9968
ัส	-10.9969
ไม่ค่อย	-10.997
▁convention	-10.997
▁supporters	-10.9973
วิท	-10.9976
-6	-10.9977
▁นอกจากนี้ยังมี	-10.9977
ในสมัยยุคทอง	-10.9978
ū	-10.998
ตัง	-10.9981
bridge	-10.9982
ทักษะ	-10.9983
คือการ	-10.9985
▁enemies	-10.9985
เทศมณฑล	-10.9986
aya	-10.9986
ปาง	-10.9987
▁Robinson	-10.9989
พรรคเพื่อไทย	-10.9991
▁Kan	-10.9991
กรุงเทพฯ	-10.9993
α	-10.9993
▁aspects	-10.9995
ัป	-10.9997
สีน้ำตาล	-10.9998
▁Wind	-10.9998
▁dream	-10.9998
▁140	-11
ify	-11
ตามลำดับ	-11.0001
ราชบัลลังก์	-11.0002
▁Hi	-11.0003
▁slowly	-11.0003
ค้นหา	-11.0004
oe	-11.0004
วย	-11.0005
และผู้	-11.0006
ประกวด	-11.0006
เราจะ	-11.0007
tics	-11.0009
การเกษตร	-11.001
▁กม	-11.0012
▁patrol	-11.0013
เวส	-11.0014
▁Cleveland	-11.0014
▁restaurant	-11.0014
▁determine	-11.0014
▁Morris	-11.0015
มีลักษณะเป็น	-11.0017
▁worth	-11.0019
ื่	-11.002
เวิร์	-11.0022
▁panel	-11.0022
▁lift	-11.0022
ใกล้เคียง	-11.0023
รูปแบบที่ใช้กัน	-11.0025
อุบัติเหตุ	-11.0025
▁causes	-11.0026
▁decades	-11.0026
ก่อตั้งขึ้น	-11.0027
ทั้งสาม	-11.0029
▁champion	-11.0029
▁dam	-11.0029
IT	-11.0029
dor	-11.0031
สำนักพิมพ์	-11.0031
▁ชุมชน	-11.0032
▁climate	-11.0033
▁dog	-11.0036
นักแต่งเพลง	-11.0038
▁สนาม	-11.0038
▁oldest	-11.0041
▁ตัน	-11.0045
กด	-11.0046
▁controversy	-11.0046
ในรัชสมัย	-11.0047
▁Tur	-11.0049
▁ตำบลหนอง	-11.0049
กีฬาโอลิมปิก	-11.0049
สุก	-11.0051
เครือ	-11.0051
ประเทศอังกฤษ	-11.0051
สปาร์ต้า	-11.0054
เชน	-11.0054
aku	-11.0054
chen	-11.0058
ของเอเธนส์	-11.0059
▁วร	-11.0064
ฟิสิกส์	-11.0064
ก็พัฒนาไปสู่	-11.0064
น้องสาว	-11.0065
▁cor	-11.0066
▁hill	-11.0067
▁Ford	-11.0068
▁obtained	-11.007
▁classes	-11.0073
เคลื่อนที่	-11.0075
ลัง	-11.0075
:00	-11.0076
วงจร	-11.0076
▁sight	-11.0077
▁Berlin	-11.0077
シ	-11.0077
▁คำกริยา	-11.0078
▁origin	-11.0078
เป็นเรื่อง	-11.0079
▁occurs	-11.0079
▁cycle	-11.008
ป็อป	-11.0082
สมุทรปราการ	-11.0083
▁Anti	-11.0088
▁ดัง	-11.0088
เจียง	-11.009
เขื่อน	-11.0091
▁attached	-11.0093
ประเมิน	-11.0093
▁entering	-11.0094
เกล้า	-11.0095
แม็ก	-11.0095
▁bright	-11.0096
▁กิโลกรัม	-11.0097
นายทหาร	-11.0098
นักวิทยาศาสตร์	-11.0098
▁widespread	-11.0099
มี่	-11.01
วินิจฉัย	-11.01
▁demo	-11.0101
็อก	-11.0102
โคล	-11.0105
▁chemical	-11.0106
▁delay	-11.0108
▁certified	-11.0109
ถัง	-11.011
▁Fan	-11.0111
มัล	-11.0112
▁Education	-11.0112
▁citizens	-11.0112
เน็ต	-11.0114
ที่เกี่ยวข้อง	-11.0114
นางแบบ	-11.0114
ขีด	-11.0114
ดิจิทัล	-11.0115
▁แต่เมื่อ	-11.0115
▁vessels	-11.0116
▁accused	-11.0117
▁Around	-11.0119
▁Hospital	-11.012
▁พระนาง	-11.012
mel	-11.0122
▁concerned	-11.0123
▁Palace	-11.0124
เช่า	-11.0126
▁encourag	-11.0127
เต่า	-11.0127
▁tape	-11.0127
▁Arsenal	-11.0128
ทน	-11.0129
cis	-11.013
ชาวโรมัน	-11.013
fire	-11.013
▁memory	-11.0131
พร้อมด้วย	-11.0132
รุก	-11.0132
เบลเยียม	-11.0133
▁card	-11.0135
ดึง	-11.0135
cia	-11.0135
เป็นสถานที่	-11.0138
อินเตอร์	-11.0139
อนุญาตให้	-11.0142
▁DNA	-11.0143
▁Shin	-11.0144
▁Rick	-11.0146
derived	-11.0146
▁Heavyweight	-11.0147
จักรพรรดินี	-11.0151
▁Modern	-11.0152
ทั้งรัฐธรรมนูญ	-11.0153
▁wear	-11.0154
▁2500	-11.0157
สาธารณสุข	-11.0158
▁circulation	-11.0159
lands	-11.016
มูลค่า	-11.016
▁log	-11.0161
นันท	-11.0161
▁assumed	-11.0162
▁360	-11.0162
▁Ran	-11.0163
ได้รับเลือกตั้ง	-11.0163
พ่ายแพ้	-11.0163
เปลี่ยนชื่อเป็น	-11.0163
▁Bull	-11.0163
DA	-11.0166
▁wearing	-11.0167
พระเยโฮวาห์	-11.0168
การแบ่ง	-11.0168
▁intelligence	-11.0168
ทำหน้าที่เป็น	-11.0169
▁fill	-11.0171
▁Patrick	-11.0171
▁valley	-11.0174
▁Jane	-11.0175
▁deem	-11.0178
คาด	-11.0178
▁atmosphere	-11.0179
จอง	-11.0179
▁prey	-11.0182
▁stem	-11.0182
▁seek	-11.0184
ราชสำนัก	-11.0185
bed	-11.0187
▁committed	-11.0187
rea	-11.0187
▁posted	-11.0192
ดูเพิ่ม	-11.0193
ทางทหาร	-11.0194
ติดต่อกัน	-11.0194
แผ่นดินไหว	-11.0194
ิด	-11.0195
เชื่อมต่อ	-11.0196
▁Bor	-11.0198
vid	-11.0199
▁Mediterranean	-11.02
▁Netherlands	-11.0203
ฤดู	-11.0205
ได้ถึง	-11.0206
▁descend	-11.0207
rew	-11.0207
ข้อตกลง	-11.0208
▁คัน	-11.0209
ico	-11.021
ศีล	-11.021
▁Oregon	-11.0211
ello	-11.0211
▁ภายใต้	-11.0212
▁females	-11.0213
ช่วยปลาย	-11.0215
▁เล	-11.0219
ตั้งใจ	-11.0219
▁๙	-11.022
โอรส	-11.0221
wer	-11.0222
▁acclaim	-11.0223
โต๊ะ	-11.0229
▁3,	-11.0229
▁admir	-11.023
สุทธิ	-11.023
ดัก	-11.023
oz	-11.0233
▁orchestra	-11.0235
▁recognition	-11.0235
นารี	-11.0238
▁opposite	-11.024
▁favorite	-11.024
วชิร	-11.0243
▁Bristol	-11.0243
▁tend	-11.0248
▁2521	-11.025
hang	-11.025
ผู้เป็น	-11.0251
▁denied	-11.0251
▁Silver	-11.0252
กระตุ้น	-11.0255
▁foundation	-11.0256
วอลเลย์บอล	-11.0256
▁successor	-11.0257
▁interior	-11.0257
ยุทธการ	-11.0257
คร	-11.0258
โจร	-11.0259
ยีน	-11.026
ปะทะ	-11.0262
ในตอน	-11.0265
ject	-11.0265
หงส์	-11.0267
▁Sweden	-11.0267
มองซิเออร์	-11.0268
▁jump	-11.027
เขียนบท	-11.0272
พระสงฆ์	-11.0273
▁Nelson	-11.0273
▁mill	-11.0274
ในรัชกาลที่	-11.0274
▁terminus	-11.0276
▁Lisa	-11.0278
ที่ดีที่สุด	-11.0278
▁ดา	-11.0282
▁ข้าพเจ้า	-11.0285
▁1925	-11.0288
ดาวเคราะห์	-11.0289
▁DE	-11.029
arrow	-11.0295
นัม	-11.0297
▁Beatles	-11.0298
คัด	-11.0298
ลัด	-11.0299
▁memorial	-11.03
▁lay	-11.03
pal	-11.03
▁answer	-11.0303
borough	-11.0303
animated	-11.0306
ชาวฝรั่งเศส	-11.0306
รัศมี	-11.0307
▁Albums	-11.0308
▁อย่าง	-11.0308
วิทย์	-11.0309
▁และโครงสร้างทาง	-11.0313
▁Initial	-11.0314
วาส	-11.0314
tail	-11.0315
ในยุโรป	-11.0317
หาด	-11.0319
▁Bishop	-11.0319
▁Ak	-11.0319
▁97	-11.0319
PS	-11.032
อยู่ภายใต้	-11.0321
gle	-11.0321
เมืองไทย	-11.0322
แค้น	-11.0323
▁fictional	-11.0323
▁Let	-11.0327
▁Matthew	-11.0327
ook	-11.0331
▁starts	-11.0333
ขับร้อง	-11.0333
quest	-11.0334
จำเป็น	-11.0335
่ำ	-11.0336
แม้แต่	-11.0337
คุก	-11.0338
wo	-11.0338
สงฆ์	-11.034
เหยื่อ	-11.034
▁criminal	-11.0343
พื้นผิว	-11.0345
เป็นประมวลกฎหมาย	-11.0345
▁สมาคม	-11.0347
▁Rain	-11.0347
▁dates	-11.0348
▁outer	-11.0349
bur	-11.0351
м	-11.0357
OR	-11.0357
ตำรา	-11.0358
▁Nan	-11.0358
▁93	-11.036
▁theater	-11.036
เชื้อเพลิง	-11.036
▁900	-11.036
▁feeling	-11.0361
avi	-11.0362
▁Eu	-11.0363
▁knock	-11.0363
▁รูปแบบ	-11.0364
▁possibility	-11.0365
▁cloud	-11.0365
คิน	-11.0366
ปร	-11.0367
▁none	-11.037
ของเมือง	-11.037
ทหารบก	-11.0378
▁thirty	-11.0379
▁relative	-11.0379
▁downtown	-11.0379
met	-11.038
เข้าแข่งขัน	-11.038
▁possession	-11.0383
‎	-11.0384
แผนการ	-11.0386
▁completion	-11.0387
▁merchant	-11.039
▁Bird	-11.0391
jan	-11.0392
▁Lar	-11.0392
▁ลำดับ	-11.0393
การให้	-11.0393
yu	-11.0395
เจ้าอาวาส	-11.0397
แอส	-11.0397
ส่วนที่	-11.0401
ในระดับชุมชน	-11.0402
▁talent	-11.0404
gel	-11.0404
5,000	-11.0404
▁หมู่	-11.0406
ทำร้าย	-11.0407
ลำปาง	-11.0407
ทำประตู	-11.0407
ipe	-11.0408
what	-11.041
▁กลุ่มดนตรี	-11.0411
▁2516	-11.0411
มิวสิก	-11.0411
▁Jacob	-11.0411
น่าจะ	-11.0412
▁Fred	-11.0412
กวน	-11.0413
▁ranking	-11.0413
ime	-11.0414
▁adventure	-11.0414
ออกเสียง	-11.0418
▁Within	-11.0418
ipp	-11.042
▁เว็บไซต์ทางการ	-11.0422
▁pan	-11.0423
เข็ม	-11.0423
▁Ron	-11.0423
ที่เกิด	-11.0424
▁Vice	-11.0427
ชำระ	-11.0429
▁91	-11.0431
คว้า	-11.0431
▁และใน	-11.0433
▁ride	-11.0433
▁destruction	-11.0433
▁circle	-11.0434
เก็ต	-11.0434
ฟื้นฟู	-11.0435
hin	-11.0439
▁ในระยะนี้	-11.0439
▁ตำบลบ้าน	-11.044
ulf	-11.0443
ช่วงเวลา	-11.0444
เริ่มมีหลักฐาน	-11.0444
นิจฉัยสั่งการ	-11.0445
▁objective	-11.0449
anda	-11.0451
▁province	-11.0451
▁Inc	-11.0452
ทักษิณ	-11.0453
png	-11.0454
▁routes	-11.0456
▁Mus	-11.0457
คอมมิวนิสต์	-11.0458
▁electronic	-11.0459
▁Mass	-11.0461
วัยรุ่น	-11.0461
▁Av	-11.0461
▁begun	-11.0462
ในขณะ	-11.0464
▁ท่าอากาศยาน	-11.0464
▁Rod	-11.0465
ides	-11.0465
late	-11.0465
▁ready	-11.0466
FA	-11.0468
▁Police	-11.047
▁Lan	-11.0474
▁Blu	-11.0478
ดีกว่า	-11.0482
▁deliver	-11.0482
ไม่เป็น	-11.0482
▁1890	-11.0482
IA	-11.0484
chy	-11.0488
point	-11.0489
▁clubs	-11.049
▁founder	-11.0491
▁hearing	-11.0494
▁missed	-11.0495
elle	-11.0499
▁1908	-11.0499
▁speaking	-11.05
PA	-11.05
▁creator	-11.05
▁tied	-11.0502
นาถ	-11.0503
sign	-11.0505
หลาน	-11.0505
สกอตแลนด์	-11.0505
มน	-11.0507
กระบี่	-11.0508
▁ยอด	-11.0508
พระองค์ทรง	-11.0508
▁die	-11.051
โทรศัพท์	-11.0511
ยาย	-11.0513
วันอาทิตย์	-11.0515
ล่าสุด	-11.0515
ทรา	-11.0516
▁grounds	-11.0517
เทียบ	-11.0518
กัส	-11.0518
▁sessions	-11.0519
eau	-11.0519
▁นับเป็น	-11.052
▁transform	-11.0521
·	-11.0524
ลิม	-11.0525
▁vehicle	-11.0527
▁Row	-11.0531
▁assistance	-11.0531
▁Holy	-11.0532
▁1923	-11.0534
▁suspect	-11.0535
▁และระบบการวิ	-11.0536
▁secur	-11.0536
เนื้อเรื่อง	-11.0536
▁benefit	-11.0539
นั้นก็	-11.0539
▁92	-11.0539
สมาชิกวุฒิสภา	-11.054
๊ด	-11.0543
รัชทายาท	-11.0544
▁Additionally	-11.0545
ในกรณี	-11.0546
▁solution	-11.0547
▁Toronto	-11.0547
▁alleged	-11.0547
▁Kid	-11.0547
▁massive	-11.0548
ขบวนการ	-11.0548
ได้เข้าร่วม	-11.0549
โยชิ	-11.055
ถ่ายภาพ	-11.0551
▁Tr	-11.0551
▁differ	-11.0553
unk	-11.0553
อิเล็กทรอนิกส์	-11.0555
Ro	-11.0555
๋ง	-11.0558
ณา	-11.056
stant	-11.0563
แม้	-11.0567
▁Cooper	-11.0568
▁venue	-11.0569
▁Ring	-11.057
▁warning	-11.057
une	-11.0571
เพลงประกอบ	-11.0571
▁animation	-11.0573
▁passengers	-11.0574
ากร	-11.0574
จากโรงเรียน	-11.0576
พัฒนาระบบกฎหมาย	-11.0577
แป้ง	-11.0578
ón	-11.0578
ับ	-11.0581
ธาร	-11.0581
ประจำการ	-11.0581
วงกลม	-11.0581
มาใช้	-11.0584
las	-11.0584
ยืนยัน	-11.0584
▁Welsh	-11.0586
lash	-11.0587
ไฟล์	-11.0589
ชายแดน	-11.059
▁Wei	-11.0592
ขึ้นกับ	-11.0592
รับใช้	-11.0593
▁deaths	-11.0594
▁Gr	-11.0595
▁incorporated	-11.0597
เกิดการ	-11.0597
พลเรือน	-11.06
▁Cole	-11.06
รร	-11.0601
▁Russell	-11.0602
ซัง	-11.0603
เทพเจ้า	-11.0604
▁finishing	-11.0605
▁เว	-11.0605
ถูกส่ง	-11.0607
▁narrative	-11.0608
▁recovered	-11.0609
เรด	-11.0609
tru	-11.061
เป็นแบบ	-11.0611
▁ธน	-11.0611
▁occasionally	-11.0612
▁sport	-11.0612
▁How	-11.0613
▁shop	-11.0614
▁86	-11.0614
อรุณ	-11.0615
▁Kelly	-11.0617
จดทะเบียน	-11.0619
ลุย	-11.0623
▁charges	-11.0623
▁driven	-11.0623
นักรบ	-11.0624
หลี่	-11.0624
เซย์	-11.0626
ไว้คนเดียว	-11.0626
ช่อ	-11.0626
▁ways	-11.0627
ค่าใช้จ่าย	-11.0627
▁experiment	-11.0629
แต	-11.0629
▁Baby	-11.0631
▁ในสมัย	-11.0631
จำเป็นต้อง	-11.0634
เปลี่ยนเป็น	-11.0636
▁89	-11.0638
▁2520	-11.0641
วีร	-11.0641
▁garrison	-11.0644
นามว่า	-11.0646
อาร์เจนตินา	-11.0647
▁ชิน	-11.0647
▁breaking	-11.0648
▁ocean	-11.065
▁Jud	-11.065
rant	-11.0653
law	-11.0654
▁Get	-11.0654
▁survive	-11.0655
ไอร์แลนด์	-11.0657
บล็อก	-11.0657
yr	-11.0658
▁Unlike	-11.0659
▁Guy	-11.066
—	-11.066
ผลงานเพลง	-11.0661
ED	-11.0663
นามิ	-11.0665
นาฬิกา	-11.0667
หลบหนี	-11.0668
▁quick	-11.0668
▁sand	-11.0669
▁romantic	-11.0669
rian	-11.067
ผูกขาดอำนาจ	-11.0672
una	-11.0672
▁responsibility	-11.0675
กองทัพอากาศ	-11.0676
วุ	-11.0676
แต่เดิม	-11.0677
▁cavalry	-11.0678
ไปทาง	-11.068
ทรงเป็น	-11.0681
ได้ยิน	-11.0683
รุ่นที่	-11.0684
โมเลกุล	-11.0686
▁เป็นนักแสดง	-11.0689
▁Thompson	-11.0689
for	-11.0691
▁throw	-11.0693
rot	-11.0693
▁regularly	-11.0695
▁Mars	-11.0695
ต่อไปนี้	-11.0696
ปรุง	-11.0697
▁Ros	-11.0697
เทือกเขา	-11.0698
วงการ	-11.0698
ล่อง	-11.0698
นักฟุตบอล	-11.07
ผู้สำเร็จราชการ	-11.0703
▁correct	-11.0705
เอกราช	-11.0707
อี้	-11.0708
กรีก	-11.0709
▁Bow	-11.0709
enberg	-11.0712
ส่วนหนึ่ง	-11.0712
▁surviving	-11.0712
อิรัก	-11.0716
ela	-11.072
ประเทศเยอรมนี	-11.0721
▁feed	-11.0722
▁Mah	-11.0725
เกา	-11.0726
ture	-11.0728
เกอ	-11.0729
หลอด	-11.0729
ปีเตอร์	-11.073
osa	-11.073
▁statue	-11.0731
▁ขุน	-11.0732
เขาจะ	-11.0732
จิง	-11.0732
▁documentary	-11.0733
ฟื้น	-11.0734
ชาน	-11.0737
ปลด	-11.0741
▁rapid	-11.0741
ด้านบน	-11.0743
ตอ	-11.0743
yard	-11.0746
ผู้รับ	-11.0748
อนุภาค	-11.0749
ปฏิบัติหน้าที่	-11.0749
▁classified	-11.075
ได้ดี	-11.0752
อนุรักษ์	-11.0754
▁Death	-11.0754
▁fossil	-11.0754
่อง	-11.0755
و	-11.0757
▁carbon	-11.0758
▁Sel	-11.0759
ภิกษุ	-11.0762
ในโอลิมปิก	-11.0766
▁Carter	-11.0767
ロ	-11.0768
▁ประกาศ	-11.077
โปรดให้	-11.077
▁soft	-11.0771
ธนา	-11.0771
▁Assembly	-11.0773
▁Jews	-11.0774
▁eleven	-11.0775
จินดา	-11.0776
ได้เริ่ม	-11.0777
bringing	-11.0777
MI	-11.0778
▁mar	-11.078
▁bat	-11.0781
สวิตเซอร์แลนด์	-11.0782
อัตตาธิปัตย์	-11.0782
ปูน	-11.0785
ในภาค	-11.0785
▁ชาย	-11.0785
ปลดปล่อย	-11.0788
ในภายหลัง	-11.0791
ถุง	-11.0795
ลักษณะของ	-11.0796
ชื่อดัง	-11.0797
▁Reg	-11.0797
เทล	-11.0798
เดย์	-11.0801
ว่ามี	-11.0802
▁happen	-11.0803
▁neither	-11.0805
สุพรรณบุรี	-11.0805
โรมาเนีย	-11.0806
จะสามารถ	-11.0806
▁ที	-11.0808
▁hero	-11.0808
▁hole	-11.0809
ได้พบกับ	-11.0809
ของโรงเรียน	-11.081
hou	-11.0811
อาจเป็น	-11.0814
แขก	-11.0816
ลัม	-11.0816
▁Adventure	-11.0817
▁motor	-11.0817
ลัส	-11.0817
▁architecture	-11.0817
▁Whit	-11.0822
▁giant	-11.0823
สูงขึ้น	-11.0824
CT	-11.0826
▁reality	-11.0827
หุ	-11.0827
▁Hong	-11.0827
Ba	-11.0828
BC	-11.0829
▁literar	-11.083
▁Call	-11.0831
ผู้ก่อตั้ง	-11.0831
อีกหลาย	-11.0831
ปกครองของผู้นำ	-11.0832
▁List	-11.0833
ขึ้นใน	-11.0837
ทัศน์	-11.084
หมู่ที่	-11.0844
ically	-11.0844
ทั่วประเทศ	-11.0844
ผู้อื่น	-11.0844
ทัศน	-11.0849
▁เมืองต่าง	-11.085
▁แค	-11.085
▁weapon	-11.085
รีบ	-11.0851
▁pure	-11.0851
▁shock	-11.0854
เธอร์	-11.0855
ยินดี	-11.0856
มาอยู่ใต้อำนาจ	-11.086
▁สาว	-11.0861
▁Croatian	-11.0863
บัล	-11.0866
▁Cast	-11.0867
▁น้ำ	-11.0868
▁properties	-11.0868
ถอน	-11.0869
นพ	-11.0871
▁loan	-11.0872
ทุกข์	-11.0872
อุทยาน	-11.0873
เติบโต	-11.0874
พระราชโอรส	-11.0875
ตระ	-11.0876
▁methods	-11.0876
▁1905	-11.0878
▁Wright	-11.0879
eus	-11.0879
เสื่อม	-11.088
นิวซีแลนด์	-11.0882
▁predecessor	-11.0882
เฉพาะอย่างยิ่ง	-11.0884
หยาง	-11.0885
▁differences	-11.0888
ดับเบิลยู	-11.0888
จังหวะ	-11.0888
▁protagonist	-11.0888
▁promise	-11.0888
▁เป็นหนึ่งใน	-11.0889
▁Pal	-11.089
▁angle	-11.0891
key	-11.0891
igan	-11.0894
ที่เข้าร่วม	-11.0894
▁factor	-11.0895
▁discussion	-11.0896
lord	-11.0896
LEFT	-11.0897
oy	-11.0898
ได้ด้วย	-11.09
สุสาน	-11.0901
▁premier	-11.0901
เสียหาย	-11.0902
สมุด	-11.0904
▁Auto	-11.0905
พนม	-11.0905
š	-11.0905
▁Sol	-11.0906
ออกจำหน่าย	-11.0906
▁separated	-11.0908
▁Tokyo	-11.0914
▁Through	-11.0915
lia	-11.0915
itch	-11.0916
▁outbreak	-11.0917
ใกล้กับ	-11.0918
มินิ	-11.0923
▁mine	-11.0923
บุคคลที่	-11.0928
▁Crown	-11.0928
กรีซเริ่ม	-11.0928
hen	-11.0929
ถ้วย	-11.093
้ม	-11.0931
▁listen	-11.0931
place	-11.0931
▁Cook	-11.0932
เดร	-11.0934
▁anniversary	-11.0934
▁Common	-11.0938
เจาะ	-11.094
ชลบุรี	-11.0941
คุณหญิง	-11.0941
▁achieve	-11.0943
ตับ	-11.0944
เท่ากัน	-11.0946
▁shots	-11.0946
บันได	-11.0946
▁ตลอดทั่วทั้ง	-11.0946
▁Production	-11.0946
▁พิพิธภัณฑ์	-11.0947
ถอด	-11.0947
กลาย	-11.0948
ได้โดย	-11.095
วาท	-11.0951
โกล	-11.0952
ื้อ	-11.0953
▁ในปัจจุบัน	-11.0954
แตกต่างจาก	-11.0954
▁Apple	-11.0955
▁vision	-11.0956
▁ยังมี	-11.0958
ไปใน	-11.0959
Ar	-11.0961
▁arrest	-11.0962
pat	-11.0962
▁communities	-11.0963
▁sharp	-11.0963
▁Fer	-11.0963
คอล	-11.0964
ความเสี่ยง	-11.0964
ความสามารถในการ	-11.0965
▁restored	-11.0965
▁cancer	-11.0965
สละ	-11.0966
หนี้	-11.0967
เป็นบุตร	-11.097
ister	-11.097
RS	-11.0972
▁Federation	-11.0972
▁Warner	-11.0973
▁Kin	-11.0973
xi	-11.0973
▁otherwise	-11.0973
▁ต่อมาได้	-11.0973
▁โดยได้	-11.0974
▁0;	-11.0974
list	-11.0975
▁pleas	-11.0977
3,	-11.0977
||1	-11.0977
▁missions	-11.0978
ปัน	-11.0979
งะ	-11.0979
เป็นผู้นำ	-11.0979
ฟอน	-11.098
.25	-11.0982
▁classical	-11.0984
aria	-11.0987
▁หนึ่งใน	-11.0988
ทอม	-11.0988
▁controversial	-11.0989
▁Medal	-11.0991
จ์	-11.0992
นิวยอร์ก	-11.0992
ที่แตกต่างกัน	-11.0992
▁Swedish	-11.0992
ค้า	-11.0992
▁inner	-11.0993
▁difficulty	-11.0994
▁mark	-11.0996
▁soil	-11.0998
▁Puerto	-11.0998
คลัง	-11.0998
▁et	-11.0999
▁bed	-11.1001
▁Harris	-11.1002
งิ	-11.1003
พระนครศรีอยุธยา	-11.1007
ินทร	-11.1008
ลาร์	-11.1009
cip	-11.1009
จุน	-11.1016
▁cruiser	-11.1017
▁83	-11.1018
▁Persian	-11.1019
ริช	-11.102
▁Raw	-11.1021
สำเนียง	-11.1021
เที่ยง	-11.1022
ถ่ายทำ	-11.1027
เมืองการปกครอง	-11.1027
▁teaching	-11.1028
▁sale	-11.1028
เอ็ดเวิร์ด	-11.103
ตต์	-11.103
▁comparison	-11.1033
▁Commander	-11.1033
▁originat	-11.1034
กวี	-11.1036
▁penalty	-11.1036
▁organisation	-11.1036
▁populations	-11.1039
พื้นเมือง	-11.104
ET	-11.104
▁Las	-11.1045
via	-11.1047
▁Late	-11.1048
viewed	-11.1048
▁delayed	-11.1053
▁ตั้งแต่ปี	-11.1056
▁library	-11.1056
▁bound	-11.1057
ผู้กำกับ	-11.1057
ทรี	-11.1058
▁battleships	-11.106
จึงต้อง	-11.106
ผลไม้	-11.1061
mol	-11.1062
รูปทรง	-11.1063
eon	-11.1063
wall	-11.1064
▁Anthony	-11.1065
▁Ter	-11.1066
▁Mari	-11.1067
ene	-11.1069
▁costs	-11.1069
▁sounds	-11.1072
ตุรกี	-11.1073
ห่าง	-11.1078
Wh	-11.1079
new	-11.1079
ชิมะ	-11.108
▁basketball	-11.1083
ado	-11.1083
▁Bas	-11.1086
ละครเรื่อง	-11.1087
mir	-11.1087
ยูฟ่า	-11.1088
urg	-11.109
เกราะ	-11.109
aire	-11.109
▁Sen	-11.1091
▁๑๑	-11.1091
โปรดิวเซอร์	-11.1091
▁injuries	-11.1091
▁materials	-11.1092
ลือ	-11.1098
▁sort	-11.1098
▁discovery	-11.11
▁Parker	-11.11
ทางอากาศ	-11.1102
▁obtain	-11.1103
SO	-11.1104
▁canal	-11.1106
▁Hero	-11.1106
▁2517	-11.1108
▁wrong	-11.1109
เทิร์น	-11.1109
เคารพ	-11.111
▁อักษร	-11.1113
▁resources	-11.1114
▁span	-11.1115
у	-11.1115
หลังจากนั้น	-11.1115
▁สมรสกับ	-11.1116
▁else	-11.1119
เพียงแค่	-11.112
SI	-11.1122
วินัย	-11.1123
▁category	-11.1124
▁throne	-11.1124
กราฟ	-11.1125
▁batting	-11.1126
วิดีโอเกม	-11.1127
ชาญ	-11.1128
▁absence	-11.113
▁strategy	-11.113
▁Gor	-11.1131
▁Area	-11.1132
ลาส	-11.1132
พอล	-11.1135
▁Ang	-11.1136
จ้าง	-11.1136
▁funding	-11.1137
▁consistent	-11.1138
พิชิต	-11.1142
position	-11.1143
▁evolv	-11.1147
ลืม	-11.1147
ech	-11.1148
ude	-11.1148
ขวาง	-11.115
▁Samuel	-11.115
หุ้น	-11.1152
▁ส่งผลให้	-11.1152
▁Health	-11.1153
▁twin	-11.1155
ในการเลือกตั้ง	-11.1156
▁invad	-11.1157
л	-11.1161
▁worst	-11.1162
▁genetic	-11.1162
พบใน	-11.1162
▁Coll	-11.1163
พริก	-11.1163
สันติ	-11.1164
ที่วัด	-11.1165
ตั้งทางการเมือง	-11.1166
สิ่งก่อสร้าง	-11.1166
▁ประมาณ	-11.1166
▁greatly	-11.1167
นร	-11.1167
สุลต่าน	-11.1168
หายใจ	-11.1171
ไม่ปรากฏ	-11.1173
▁apart	-11.1174
ถ่ายทอด	-11.1174
▁returns	-11.1175
▁NFL	-11.1175
▁Digital	-11.1177
เชฟ	-11.1178
▁Hit	-11.118
ต้นแบบ	-11.1181
สะอาด	-11.1183
▁สำนัก	-11.1185
เคลื่อนไหว	-11.1187
lab	-11.1189
bl	-11.119
▁Along	-11.1191
Li	-11.1191
▁Murray	-11.1192
▁tries	-11.1192
นีย์	-11.1192
ประถมศึกษา	-11.1193
▁neck	-11.1194
สันติภาพ	-11.1194
ารพัฒนาหน่วยจัด	-11.1194
▁phone	-11.1196
▁Low	-11.1197
▁evacuat	-11.1197
atch	-11.1198
▁Fall	-11.1199
oh	-11.1201
lla	-11.1203
▁fighter	-11.1203
DF	-11.1203
▁อันดับที่	-11.1204
▁appointment	-11.1205
▁crosses	-11.1207
▁Khan	-11.1212
เอื้อ	-11.1213
SE	-11.1213
▁Sho	-11.1215
▁votes	-11.1215
เซอ	-11.1216
เปรียบ	-11.1217
ree	-11.1217
บางครั้ง	-11.1218
acres	-11.1219
▁Im	-11.1221
ความผิดปกติ	-11.1221
▁historians	-11.1223
เป็นกลุ่ม	-11.1225
ณรงค์	-11.1225
▁temporary	-11.1227
▁Legend	-11.1231
ทั้งใน	-11.1236
kov	-11.1237
ได้ทอดทัศนาเห็นก	-11.1242
▁chairman	-11.1242
▁Place	-11.1245
ได้ออก	-11.1245
ลอน	-11.1246
▁คู	-11.1247
▁Roy	-11.1251
นต์	-11.1252
▁ยุค	-11.1252
▁stands	-11.1253
สมรส	-11.1255
▁Player	-11.1256
เบญจ	-11.1256
โฉม	-11.1256
รัด	-11.1257
р	-11.126
▁Batman	-11.126
จั	-11.126
การตรวจ	-11.1261
▁ก่อนที่	-11.1261
▁และในปี	-11.1261
นัง	-11.1262
4||	-11.1262
▁Gro	-11.1262
หลายแห่ง	-11.1264
ของจังหวัด	-11.1265
ประสิทธิภาพ	-11.1266
ที่ได้รับการ	-11.1266
ウ	-11.1266
▁pace	-11.127
▁folk	-11.1272
▁Blood	-11.1272
▁weekend	-11.1274
ช์	-11.1275
อนาคต	-11.1277
▁Movie	-11.1278
▁passenger	-11.1278
▁2512	-11.1279
▁ratings	-11.128
ในสมัยอาร์เคอิก	-11.1281
สังคมนิยม	-11.1281
▁เปิด	-11.1284
▁monitor	-11.1284
▁intense	-11.1284
▁immediate	-11.1284
ออกมาจาก	-11.1286
เนะ	-11.1286
จันทร	-11.1288
ในหมู่	-11.1289
▁Mario	-11.1291
▁bond	-11.1291
▁Kh	-11.1293
▁Dor	-11.1294
ชนิดนี้	-11.1296
pine	-11.1297
ender	-11.1298
▁residence	-11.1299
ตาล	-11.13
-10	-11.13
▁gift	-11.1303
▁1909	-11.1305
▁colonial	-11.1308
▁chamber	-11.1308
รัฐประหาร	-11.131
▁margin	-11.1313
สมการ	-11.1314
▁1907	-11.1316
มัสยิด	-11.1317
โหวต	-11.1317
จุฬาลงกรณ์	-11.1317
chu	-11.1318
พัฒนาการ	-11.1318
▁(1)	-11.1319
rog	-11.132
▁1904	-11.1326
▁Dead	-11.1329
ule	-11.1329
สมุทร	-11.1329
▁deposit	-11.1332
พลเมือง	-11.1334
▁medieval	-11.1335
▁EP	-11.134
▁กระ	-11.1342
▁involvement	-11.1342
อิล	-11.1342
ํ	-11.1344
ครัว	-11.1346
SC	-11.1346
ทายาท	-11.1347
▁render	-11.1348
ave	-11.1349
▁option	-11.1349
=#|	-11.1349
roy	-11.1349
คาร์ล	-11.135
▁criticis	-11.135
rill	-11.1351
▁operate	-11.1351
▁reviewer	-11.1352
แอร์ไลน์	-11.1356
▁divisions	-11.1356
but	-11.1359
bri	-11.1361
ปาน	-11.1363
เวียน	-11.1363
cht	-11.1363
▁hat	-11.1364
เลิฟ	-11.1365
ยามา	-11.1365
จนถึงปัจจุบัน	-11.1366
สัปดาห์ที่	-11.1368
ได้ทำ	-11.1369
บันเทิง	-11.137
หลังจากการ	-11.137
▁forming	-11.1371
และไม่	-11.1371
▁ninth	-11.1371
▁rooms	-11.1373
▁Israel	-11.1374
▁และตำบล	-11.1374
ตะวัน	-11.1377
เก็บสะสม	-11.1378
สร้างความ	-11.1378
คนไทย	-11.1379
ศิษย์	-11.138
▁portray	-11.1384
▁Mir	-11.1385
▁ชนะเลิศ	-11.1387
มุน	-11.1388
sol	-11.1388
▁Para	-11.1389
▁Burn	-11.1391
▁1906	-11.1392
▁girls	-11.1393
ยม	-11.1394
▁carrier	-11.1394
cut	-11.1395
เปลี่ยนไป	-11.1396
▁Secret	-11.1397
ดื่ม	-11.1397
ภาษาญี่ปุ่น	-11.1397
pol	-11.1399
run	-11.14
ดุสิต	-11.1401
▁falling	-11.1402
อินท	-11.1402
▁Album	-11.1402
▁นอกจากนั้น	-11.1402
ยามะ	-11.1404
จัดเป็น	-11.1407
ตัก	-11.1408
▁pen	-11.141
ل	-11.141
็น	-11.141
พิธีกร	-11.141
▁อาจหมายถึง	-11.1411
-18	-11.1411
▁Gilbert	-11.1413
การสำรวจ	-11.1413
ฝรั่ง	-11.1414
▁Bri	-11.1419
vol	-11.142
เอกซ์	-11.1421
▁environmental	-11.1425
บันทึกเสียง	-11.1426
▁การใช้	-11.1427
สิ่งของ	-11.1428
nia	-11.1429
แฮม	-11.1431
ซิม	-11.1434
กรอบ	-11.1434
▁dating	-11.1434
ินทร์	-11.1435
▁Guardian	-11.1435
กล่อง	-11.1436
▁Austria	-11.1436
มองเห็น	-11.1437
▁compete	-11.1437
การจัดอันดับ	-11.1438
▁เฟ	-11.1439
▁fields	-11.1439
เจ้าพนักงาน	-11.144
▁Commonwealth	-11.144
star	-11.1441
ด้านการ	-11.1442
▁rhythm	-11.1443
MC	-11.1444
igh	-11.1445
ads	-11.1446
กลีบ	-11.1447
บ้า	-11.1447
บ่อยครั้ง	-11.145
เป็นนักร้อง	-11.145
ประกอบไปด้วย	-11.1451
▁emerg	-11.1453
▁und	-11.1455
พากย์	-11.1455
▁Edge	-11.1455
เนียร์	-11.1455
พาย	-11.1461
▁101	-11.1462
▁Frederick	-11.1462
2,	-11.1463
▁ประ	-11.1464
▁Houston	-11.1465
รับสั่ง	-11.1465
ที่ไม่ได้	-11.1465
เจ้าบรมวงศ์เธอ	-11.1466
▁eggs	-11.1468
▁steal	-11.1468
▁Bus	-11.1468
▁NBC	-11.147
▁105	-11.1473
พรี	-11.1473
▁Jason	-11.1474
lov	-11.1475
▁weigh	-11.1475
▁chi	-11.1478
ก้อน	-11.1478
▁remove	-11.1478
▁labor	-11.1481
▁๑๒	-11.1481
องค์ที่	-11.1482
▁Building	-11.1483
แบคทีเรีย	-11.1486
▁Gaga	-11.1487
บาป	-11.149
▁Cra	-11.1491
▁visible	-11.1492
hon	-11.1493
▁movements	-11.1493
▁fifteen	-11.1495
รัต	-11.1497
ในภูมิภาค	-11.1498
กรีฑา	-11.1501
▁techniques	-11.1505
▁Hotel	-11.1509
▁วัฒนธรรม	-11.1509
▁audio	-11.1509
▁colony	-11.151
▁revenue	-11.151
▁ออ	-11.1511
▁bow	-11.1512
มีอยู่	-11.1512
▁ซึ่งทำให้	-11.1512
レ	-11.1513
▁modified	-11.1513
สหพันธ์	-11.1514
สลาย	-11.1516
ชัด	-11.1516
▁download	-11.1519
อย่างยิ่ง	-11.1521
เซอร์เบีย	-11.1522
ในระหว่าง	-11.1525
เชียงราย	-11.1525
จากทั่ว	-11.1525
▁tie	-11.1526
สำ	-11.1526
cu	-11.1526
uring	-11.1527
▁spell	-11.1528
▁Hindu	-11.1528
ees	-11.1529
▁stable	-11.1529
็ค	-11.1531
not	-11.1533
▁musicians	-11.1535
bold	-11.1536
ที่เธอ	-11.1536
:1	-11.1538
▁siege	-11.1538
▁McG	-11.1541
รีน	-11.1543
mond	-11.1544
เข้าถึง	-11.1544
▁ไซ	-11.1545
▁ตัวอย่างเช่น	-11.1549
▁pin	-11.1549
▁sons	-11.1549
▁everyone	-11.1549
▁loop	-11.1552
▁auto	-11.1552
▁ค่า	-11.1559
▁Simpson	-11.1559
▁Thus	-11.156
▁suffering	-11.1562
ฝ	-11.1565
▁Pope	-11.1565
ละเอียด	-11.1567
แด่	-11.1568
▁convection	-11.1569
ทำได้	-11.1571
▁afterwards	-11.1572
คูณ	-11.1572
▁accounts	-11.1573
▁gla	-11.1574
▁facility	-11.1575
ได้รับพระราชทาน	-11.1576
▁ruler	-11.1576
▁Country	-11.1577
ซัล	-11.1578
ลงโทษ	-11.158
▁needs	-11.158
ถูกทำลาย	-11.1583
▁expert	-11.1584
oll	-11.1585
สภาวะ	-11.1586
ได้รับแต่งตั้ง	-11.1589
▁fatal	-11.159
▁Stewart	-11.159
จะมีการ	-11.1593
เป็นที่นิยม	-11.1601
▁desert	-11.1601
▁Take	-11.1604
ดีน	-11.1605
▁distributed	-11.1606
OS	-11.1607
▁ซม	-11.1607
อันเป็น	-11.1608
Me	-11.1609
▁seeing	-11.1609
สันนิษฐานว่า	-11.161
ล้ำ	-11.1611
เพื่อที่จะ	-11.1612
▁Fal	-11.1615
▁ideal	-11.1617
▁Nielsen	-11.1618
ark	-11.1619
▁coin	-11.162
เสนาบดี	-11.1621
ปีเดียวกัน	-11.1621
▁appearing	-11.1621
๊ะ	-11.1622
▁PA	-11.1622
▁presidential	-11.1622
rod	-11.1623
แป	-11.1624
ถอย	-11.1625
▁Season	-11.1626
▁gone	-11.1627
▁dialogue	-11.1627
ในบาง	-11.1629
ใช้ชีวิต	-11.1629
โกรธ	-11.163
▁painted	-11.163
ไม่รู้	-11.163
ศาสตรบัณฑิต	-11.163
คลุม	-11.1633
เพลงที่	-11.1634
นิคม	-11.1634
Po	-11.1636
▁Kra	-11.1639
▁legislation	-11.164
นวล	-11.1641
▁Hawk	-11.1642
▁check	-11.1642
เดินทางมา	-11.1645
▁universe	-11.1646
▁pictures	-11.1648
▁graphics	-11.1649
ฟิล์ม	-11.1649
▁Scout	-11.165
▁Rad	-11.1651
▁streets	-11.1651
ตัวผู้	-11.1653
▁retirement	-11.1656
สื่อสาร	-11.1657
ras	-11.1658
vig	-11.1659
▁‘	-11.1661
biggest	-11.1662
แผล	-11.1662
▁impos	-11.1662
ได้ใช้	-11.1663
อย่า	-11.1666
เรียนรู้	-11.1667
สมเด็จพระราชินี	-11.1668
▁Pur	-11.1668
ชนบท	-11.1669
ขึ้นครองราชย์	-11.167
load	-11.167
ยี่	-11.167
▁Business	-11.1671
▁detail	-11.1671
▁gay	-11.1672
▁Evans	-11.1672
มิล	-11.1672
นิ่ง	-11.1672
ปู่	-11.1674
พราหมณ์	-11.1677
พาณิชย์	-11.1677
เตะ	-11.1677
อัศวิน	-11.1678
โมะ	-11.1684
ไลฟ์	-11.1686
▁pet	-11.1688
▁pain	-11.169
นอกจาก	-11.169
จิตรกร	-11.169
▁adults	-11.169
ชอ	-11.1693
เป็นไปได้	-11.1694
▁beautiful	-11.1695
gas	-11.1696
เหม	-11.1696
▁Thi	-11.1696
ن	-11.1698
ote	-11.1702
▁Further	-11.1705
แมตช์	-11.1705
อากิ	-11.1705
▁ติดต่อกับอำเภอ	-11.1706
▁Egyptian	-11.1707
▁anyone	-11.1708
▁2515	-11.1708
1,	-11.1709
▁Lane	-11.171
impressed	-11.1711
▁Jesus	-11.1711
▁continuing	-11.1714
ali	-11.1714
ปราบปราม	-11.1717
ในห้อง	-11.1717
นี้คือ	-11.1718
ความพยายาม	-11.1718
ด้า	-11.1718
สนามกีฬา	-11.1718
▁concern	-11.1722
▁longest	-11.1724
stru	-11.1725
โคน	-11.1725
ที่มหาวิทยาลัย	-11.1726
ั้น	-11.1726
▁dominated	-11.1726
มง	-11.1727
ณิ	-11.1727
เนล	-11.1729
▁implement	-11.1729
▁โย	-11.173
บาดเจ็บ	-11.1731
▁1880	-11.1731
▁arrangement	-11.1732
ย้ายมา	-11.1733
พราน	-11.1736
▁thin	-11.1736
กู้	-11.1738
▁huge	-11.1739
ซึม	-11.174
หลายอย่าง	-11.1742
▁aim	-11.1744
เคร	-11.1744
จันท	-11.1748
▁Greece	-11.1749
คาบสมุทร	-11.1749
▁document	-11.1749
▁อนึ่ง	-11.1749
สัตว์ป่า	-11.1751
ira	-11.1751
▁ต้น	-11.1752
ม์	-11.1753
พารา	-11.1754
▁engagement	-11.1756
จึงเป็น	-11.1757
uit	-11.1757
▁influenc	-11.1757
▁meets	-11.1758
ยอดนิยม	-11.1758
ศาสนาพุทธ	-11.176
แวน	-11.1761
▁Steven	-11.1761
▁CR	-11.1762
dam	-11.1762
การเงิน	-11.1763
อุทิศ	-11.1769
รัชกาลที่	-11.177
्	-11.177
▁ได้รับพระราชทาน	-11.1772
คริสตจักร	-11.1774
▁Know	-11.1775
▁railroad	-11.1777
จิตรกรรม	-11.1779
▁wait	-11.1779
▁Carr	-11.178
rig	-11.1781
ati	-11.1782
▁emphasis	-11.1783
▁1870	-11.1785
▁noting	-11.1785
ลิต	-11.1785
▁grass	-11.1786
▁Turkish	-11.1787
▁รัฐมนตรีว่าการ	-11.1787
ways	-11.1788
▁grave	-11.179
มัด	-11.1791
ī	-11.1792
▁Children	-11.1793
▁historic	-11.1793
▁ผู้อำนวยการ	-11.1794
ดิบ	-11.1795
▁Staff	-11.1796
กระบอก	-11.1796
▁bell	-11.1796
เขตการปกครอง	-11.1797
ขอบเขต	-11.1798
ในหนังสือ	-11.1798
atus	-11.1799
อยุธยา	-11.1802
กรณ์	-11.1803
สะดวก	-11.1803
บรรทุก	-11.1804
▁Front	-11.1804
เวลส์	-11.1806
▁belong	-11.1807
▁Croatia	-11.1808
ใช้ชื่อว่า	-11.1811
กุด	-11.1813
▁Sil	-11.1815
Se	-11.1816
สร้างโดย	-11.1816
ua	-11.1819
▁difference	-11.1819
สิ้นสุดลง	-11.1819
แสดงความ	-11.1819
▁attacking	-11.182
▁languages	-11.1823
บางกอก	-11.1824
ครั้งที่สอง	-11.1824
ทรู	-11.1824
▁Brazil	-11.1824
เก่ง	-11.1825
▁sleep	-11.1826
แน่น	-11.1826
ก่อนที่จะ	-11.1827
มีรูปร่าง	-11.1827
กลไก	-11.1828
ฮั่น	-11.183
ลูกทุ่ง	-11.183
▁travell	-11.1833
▁||15	-11.1834
▁vice	-11.1834
▁ฟุต	-11.1836
ควรจะ	-11.1837
▁sector	-11.1838
▁temperatures	-11.1841
▁craft	-11.1842
บรรดาศักดิ์	-11.1843
zen	-11.1846
และได้	-11.1846
▁console	-11.1846
แซน	-11.1847
เหลี่ยม	-11.1849
▁professor	-11.185
most	-11.1851
▁ตามลำดับ	-11.1851
▁schedule	-11.1851
นอ	-11.1852
▁Xbox	-11.1856
นั้นได้	-11.1857
ที่ยัง	-11.1859
▁moves	-11.186
คาน	-11.186
จะทำ	-11.1861
▁architect	-11.1861
ดาวฤกษ์	-11.1862
▁closer	-11.1862
▁mental	-11.1865
▁enlist	-11.1866
ici	-11.1867
ska	-11.1868
ب	-11.1868
▁emergency	-11.1868
ชั่วโมง	-11.1869
ที่มีอยู่	-11.187
เรื่อย	-11.1871
▁nickname	-11.1872
กระสุน	-11.1872
เฉ	-11.1873
▁Category	-11.1875
▁influential	-11.1875
▁references	-11.1878
▁manage	-11.188
จัดแสดง	-11.188
▁emperor	-11.1881
▁landed	-11.1881
กวาง	-11.1887
พลอย	-11.1889
▁สปีชีส์ในสกุล	-11.189
▁DC	-11.1891
ริเริ่ม	-11.1892
นาซี	-11.1893
rac	-11.1893
▁tip	-11.1895
ไม่กี่	-11.1896
▁trained	-11.1896
เชล	-11.1898
งานเขียน	-11.19
▁Bru	-11.1901
bus	-11.1902
▁เป็นภาพยนตร์	-11.1903
ผู้สนับสนุน	-11.1903
▁generated	-11.1905
ยูกิ	-11.1906
▁starr	-11.1907
ยิ	-11.1907
ante	-11.1907
▁Marshall	-11.1909
พระมเหสี	-11.1912
▁seal	-11.1912
▁โดยจะ	-11.1912
▁Lawrence	-11.1913
ตอนปลาย	-11.1914
ในอัลบั้ม	-11.1914
ทารก	-11.1916
▁Dec	-11.1916
ij	-11.1918
บางชนิด	-11.1918
▁understand	-11.1918
▁125	-11.1921
ตัวของ	-11.1921
▁Ven	-11.1922
▁deployed	-11.1923
▁Are	-11.1924
ติง	-11.1924
▁Isle	-11.1925
▁doubt	-11.1925
▁Sarah	-11.1925
▁explosion	-11.1925
.19	-11.1933
ชมรม	-11.1933
อากาศยาน	-11.1934
ของอังกฤษ	-11.1935
รอบรองชนะเลิศ	-11.1936
▁Anglo	-11.1937
ที่สุดใน	-11.1937
พระครู	-11.1937
ตามกฎหมาย	-11.1937
ชุน	-11.194
พึง	-11.1941
ในลักษณะ	-11.1941
▁Zo	-11.1947
สบาย	-11.1948
ben	-11.195
หลิว	-11.1951
uan	-11.1953
▁(5	-11.1954
อวัยวะ	-11.196
ดังนั้น	-11.1961
▁Spears	-11.1961
▁costume	-11.1965
เทวี	-11.1965
mph	-11.1966
▁ไท	-11.1966
เฉิน	-11.1968
อินทร	-11.1969
ต้ม	-11.1969
▁hear	-11.1971
▁require	-11.1971
▁Var	-11.1972
▁device	-11.1974
▁copy	-11.1975
600	-11.1975
▁Christopher	-11.198
▁Ministry	-11.198
▁Melbourne	-11.198
นิ้ว	-11.198
เลขที่	-11.1981
โจโฉ	-11.1984
▁vertical	-11.1984
▁"2"	-11.1986
▁Hunt	-11.1986
itt	-11.1989
▁Clinton	-11.1989
▁Has	-11.1991
ฐานข้อมูล	-11.1991
▁learning	-11.1992
เพื่อใช้	-11.1992
フ	-11.1993
ความสำคัญ	-11.1995
▁Week	-11.1995
ink	-11.1996
ในสหรัฐ	-11.1997
dding	-11.1998
▁Program	-11.2003
▁ปีก่อนคริสตกาล	-11.2004
▁HD	-11.2004
เนอ	-11.2007
▁ตระกูล	-11.2007
ลาออก	-11.2008
▁ติดต่อกับ	-11.201
▁concentration	-11.201
▁false	-11.2012
د	-11.2012
เชื่อมโยง	-11.2012
SH	-11.2013
▁wings	-11.2015
บุคลากร	-11.2015
ที่ทรง	-11.2016
ยกย่อง	-11.2019
▁bishop	-11.2021
▁ni	-11.2022
▁lies	-11.2026
▁ที่เมือง	-11.2026
▁ก็จะ	-11.2027
▁Malaysia	-11.2029
▁guide	-11.203
ิ่ง	-11.203
▁designation	-11.2032
ระบอบ	-11.2033
▁commenc	-11.2034
table	-11.2036
▁holds	-11.2037
▁Dave	-11.2038
เหรียญทอง	-11.2038
ัณ	-11.2039
ยึดครอง	-11.204
สุดยอด	-11.204
▁Mun	-11.204
▁exceed	-11.2044
▁error	-11.2047
||&	-11.2047
เพลงประกอบละคร	-11.2048
▁gap	-11.2048
▁ภาควิชา	-11.2049
จิตวิทยา	-11.2051
▁Roll	-11.2052
▁สุข	-11.2052
ภพ	-11.2052
ครีบ	-11.2052
▁occupation	-11.2054
เพ็ญ	-11.2054
สุริย	-11.2055
▁Chronicle	-11.2057
▁disorder	-11.2057
มีอาการ	-11.2057
คริสต์ทศวรรษ	-11.2058
เกิดความ	-11.2059
ในพระ	-11.2059
ของระบบ	-11.2061
▁คลอง	-11.2063
▁1000	-11.2063
▁Greg	-11.2064
ข้าพระองค์	-11.2065
▁alter	-11.2065
หนีไป	-11.2065
▁RAF	-11.2066
▁สัตว์	-11.2066
▁ethnic	-11.2067
3)	-11.2069
▁Grammy	-11.207
try	-11.2071
▁Edition	-11.2072
ตั้งอยู่ที่	-11.2072
เจ็บ	-11.2072
นิน	-11.2074
▁discussed	-11.2076
▁defended	-11.2077
▁sit	-11.2078
▁parish	-11.2078
▁แม่น้ำ	-11.2079
▁advis	-11.2079
▁Every	-11.2081
ที่มาจาก	-11.2085
▁Detroit	-11.2086
▁ruin	-11.2086
▁executed	-11.2088
heim	-11.2091
verse	-11.2091
▁ตั้งอยู่ที่	-11.2091
▁Gri	-11.2092
arn	-11.2093
hroughout	-11.2096
ใต้ดิน	-11.2097
▁จึงทำให้	-11.2099
ได้ไป	-11.2099
เคิล	-11.21
▁สนามกีฬา	-11.21
เตา	-11.2103
เดส	-11.2105
ำ	-11.2105
9;	-11.2105
▁detailed	-11.2107
การทดสอบ	-11.2108
▁คง	-11.2108
ในเครือ	-11.2109
ความต้องการ	-11.211
จัดขึ้นที่	-11.2115
ราชาธิบดี	-11.2115
▁Ian	-11.2115
pas	-11.2115
บรรพ	-11.2116
▁PC	-11.2119
▁chair	-11.212
บรรเลง	-11.2122
การเป็น	-11.2124
▁standards	-11.2124
คิม	-11.2125
hosted	-11.2127
▁2514	-11.2128
วารสาร	-11.2128
rov	-11.2129
คีรี	-11.2129
ถัดมา	-11.2129
▁firing	-11.2129
▁footage	-11.2129
^	-11.213
ใช้ในการ	-11.213
แสดงถึง	-11.2131
lid	-11.2131
emi	-11.2132
ฎ	-11.2132
การทำงานของ	-11.2134
▁RAAF	-11.2135
▁coat	-11.2135
หลายชนิด	-11.2136
▁graduate	-11.2137
▁battleship	-11.2139
ล้านนา	-11.2139
▁wooden	-11.2139
อาทิตย์	-11.214
▁Lang	-11.2146
▁จะได้	-11.2148
นว	-11.2153
▁investigat	-11.2154
▁Treaty	-11.2154
แอม	-11.2156
▁column	-11.2157
บริติช	-11.2157
▁uniform	-11.2159
▁tension	-11.2161
▁diameter	-11.2161
ในขณะที่	-11.2162
▁childhood	-11.2165
lain	-11.2167
ริค	-11.2167
กระทรวงกลาโหม	-11.2168
เตอ	-11.2168
ชวา	-11.217
▁Baltimore	-11.2171
▁authors	-11.2171
▁measures	-11.2171
เขตร้อน	-11.2171
▁ยกเว้น	-11.2174
ปลอม	-11.2177
▁circuit	-11.2177
ผืน	-11.2177
aging	-11.2178
▁legend	-11.2178
rang	-11.2178
some	-11.218
▁squad	-11.2181
eller	-11.2181
▁instruments	-11.2181
▁expression	-11.2182
ตอนกลาง	-11.2183
ไม่ครบ	-11.2183
เคลื่อน	-11.2184
▁1901	-11.2184
▁แต่ละ	-11.2185
อสูร	-11.2187
ić	-11.2187
ทีมชาติไทย	-11.2187
การปรับ	-11.219
เพล	-11.2191
claiming	-11.2191
▁Race	-11.2191
▁Colorado	-11.2193
▁MP	-11.2194
ประมุข	-11.2194
ความสูง	-11.2195
▁tribute	-11.2197
▁hunting	-11.2198
นักวิจารณ์	-11.2199
ทราบว่า	-11.22
เมะ	-11.22
▁superior	-11.2201
ด้านข้าง	-11.2202
ตื่น	-11.2203
หรือลอกเลียนแบบ	-11.2203
จำคุก	-11.2204
rt	-11.2204
▁Lev	-11.2206
แปซิฟิก	-11.2206
▁facing	-11.2207
รอบสุดท้าย	-11.2207
▁stress	-11.2207
เกินไป	-11.2208
uki	-11.2209
ขึ้นทะเบียน	-11.221
▁afternoon	-11.221
ทิน	-11.221
ไม่มีการ	-11.2211
▁แสง	-11.2212
▁Girls	-11.2213
▁spend	-11.2214
วก	-11.2215
▁บรรณานุกรม	-11.2216
หมา	-11.2218
▁(2)	-11.2219
เศรษฐ	-11.2219
ฉีด	-11.222
▁Nevertheless	-11.2221
ตั้งเป็น	-11.2221
เจ้าฟ้า	-11.2221
▁Bat	-11.2222
สถาปนิก	-11.2223
ที่ประชุม	-11.2224
▁พ่อ	-11.2225
orn	-11.2225
▁victims	-11.2226
▁resolution	-11.2226
แพน	-11.2229
▁Much	-11.2229
▁ความสัมพันธ์	-11.2231
▁earning	-11.2232
▁Hen	-11.2232
▁resigned	-11.2233
อภัย	-11.2235
แต่งงานกับ	-11.2235
สไตล์	-11.2236
▁Mid	-11.2242
bird	-11.2243
นามสกุล	-11.2244
อรรถ	-11.2245
lt	-11.2245
▁offering	-11.2248
▁collaboration	-11.225
▁owners	-11.2252
หน้าต่าง	-11.2252
▁window	-11.2252
▁เป	-11.2253
▁vs	-11.2253
▁preferred	-11.2254
9%	-11.2256
bia	-11.2258
▁coins	-11.2259
▁Shu	-11.2259
,500	-11.226
▁exhibition	-11.226
residential	-11.2261
▁Off	-11.2262
▁Stand	-11.2264
ปีต่อมา	-11.2266
▁USS	-11.2267
สืบทอด	-11.2273
▁bear	-11.2274
▁ไมล์	-11.2275
▁และงานศิลปะที่	-11.2276
▁Trust	-11.2276
บรรพบุรุษ	-11.2276
อยู่แล้ว	-11.2276
ค่อย	-11.2276
▁Austrian	-11.2277
▁พระราช	-11.2278
เหรียญทองแดง	-11.2278
นำไปสู่	-11.228
▁VI	-11.2282
バ	-11.2282
▁questions	-11.2283
อธิการ	-11.2284
-15	-11.2287
▁linked	-11.2288
▁radar	-11.2289
พระอาจารย์	-11.2289
▁elections	-11.229
=3	-11.229
▁factors	-11.2291
▁(3	-11.2292
▁Tam	-11.2293
▁Stra	-11.2293
ระงับ	-11.2295
cas	-11.2296
ได้ง่าย	-11.2298
uv	-11.2299
ต่อการ	-11.23
อนา	-11.2301
▁vessel	-11.2301
▁ทิศตะวันออก	-11.2301
▁Lennon	-11.2302
▁debt	-11.2303
▁interests	-11.2303
▁เขาเป็น	-11.2303
ปอด	-11.2304
▁watching	-11.2304
▁happened	-11.2305
▁flew	-11.2306
etta	-11.2306
แผ่	-11.2308
ก็สามารถ	-11.2308
▁junior	-11.2309
▁translation	-11.2309
กัม	-11.2309
lect	-11.2311
arm	-11.2311
กูล	-11.2314
อาสนวิหาร	-11.2315
หมวก	-11.2315
▁เป็นอาคาร	-11.2317
nut	-11.2317
ดาวเทียม	-11.2318
▁arc	-11.232
▁Design	-11.2325
เลขานุการ	-11.2325
ฟอง	-11.2329
▁involve	-11.2329
เก่าแก่	-11.233
▁Canal	-11.2331
พึ่ง	-11.2332
สุราษฎร์ธานี	-11.2332
▁extent	-11.2332
พระบิดา	-11.2332
เบิล	-11.2335
▁skills	-11.2335
จัดตั้งขึ้น	-11.2336
▁Caribbean	-11.2338
face	-11.2339
mut	-11.234
ของประชาชน	-11.234
นับแต่	-11.2341
▁cu	-11.2342
▁violent	-11.2342
gli	-11.2342
rup	-11.2343
เมตร	-11.2345
▁ฉัน	-11.2345
JPG	-11.2345
▁happy	-11.2345
ปั้น	-11.2347
ภาษาจีน	-11.2348
▁smooth	-11.2348
iko	-11.2349
▁visitors	-11.235
▁interaction	-11.235
▁thereafter	-11.2352
▁Sto	-11.2353
▁Cy	-11.2353
หุ้ม	-11.2356
ขนาน	-11.2358
▁alternate	-11.2359
กรีน	-11.2359
โดยรวม	-11.236
▁lawyer	-11.2363
กรอง	-11.2363
นท์	-11.2363
▁ทิศใต้	-11.2364
ซีดี	-11.2364
▁Born	-11.2365
▁ได้มี	-11.2366
พอใจ	-11.2368
สด็จพระราชดำเนิน	-11.2369
▁Bros	-11.237
▁driver	-11.2372
▁trials	-11.2374
fort	-11.2376
▁Dick	-11.2377
▁journal	-11.2377
ในหลาย	-11.2378
ér	-11.2378
▁junction	-11.2382
ตอนใต้	-11.2383
คำร้อง	-11.2384
▁hundreds	-11.2385
▁Indians	-11.2385
▁wo	-11.2387
RE	-11.2389
▁Bol	-11.239
▁2513	-11.239
inus	-11.239
ไม่ยอม	-11.2391
ッ	-11.2395
▁confront	-11.2395
กรี	-11.2395
วัชร	-11.2395
โดดเด่น	-11.2399
▁prevented	-11.2399
▁Ana	-11.2401
マ	-11.2404
カ	-11.2405
รังสิต	-11.2405
6||	-11.2406
เฮนรี	-11.241
▁Soul	-11.2412
ึง	-11.2414
▁Actor	-11.2415
6"|	-11.2416
อย่างกว้างขวาง	-11.2418
ครบรอบ	-11.2418
▁recover	-11.2419
▁Plant	-11.2419
บวช	-11.242
พบได้	-11.2421
ุ่น	-11.2422
ได้ให้	-11.2422
เทวดา	-11.2422
มีการใช้	-11.2424
▁Artist	-11.2425
อิก	-11.2425
การแข่งขันฟุตบอล	-11.2427
บาท	-11.2428
▁อีกทั้ง	-11.243
ฐานะ	-11.243
เป็นเจ้าภาพ	-11.2431
พรรคคอมมิวนิสต์	-11.2432
ข้อมูลโบราณคดี	-11.2433
kel	-11.2435
RNA	-11.2435
ัน	-11.2436
▁agents	-11.2436
สถานศึกษา	-11.2439
ฮิว	-11.244
ไข้	-11.244
▁prove	-11.2441
อาศัยอยู่ใน	-11.2441
ผิวหนัง	-11.2441
การต่างประเทศ	-11.2442
ั่ง	-11.2442
พิชัย	-11.2443
▁garden	-11.2443
พูน	-11.2445
▁Internet	-11.2446
boy	-11.2447
▁Peninsula	-11.2449
ตลอดเวลา	-11.245
วีระ	-11.245
▁employees	-11.2453
บนเกาะ	-11.2453
▁Soon	-11.2453
duc	-11.2454
ถูกใช้	-11.2456
รวมกับ	-11.2458
แคล	-11.2458
▁Dog	-11.2458
้ด	-11.2458
▁Pakistan	-11.2459
▁disaster	-11.2459
เป็นหัวหน้า	-11.246
เรียกร้อง	-11.2462
▁militia	-11.2462
▁Nine	-11.2462
awa	-11.2462
ใช้บังคับ	-11.2464
มีพระ	-11.2465
เมล	-11.2466
มนต์	-11.2468
▁prize	-11.2469
โ	-11.2469
าสน์	-11.2472
เปอร์เซีย	-11.2472
หมัด	-11.2473
▁hull	-11.2474
เลย์	-11.2474
เทค	-11.2474
กบ	-11.2475
กเกอร์	-11.2475
ที่แท้จริง	-11.2475
▁อภิ	-11.2475
▁easy	-11.2476
ั่น	-11.2477
ขั้ว	-11.2477
▁Karl	-11.2478
ซอย	-11.248
▁Marie	-11.248
▁poetry	-11.2481
▁publisher	-11.2482
▁รัตน	-11.2482
อนุบาล	-11.2483
▁wheel	-11.2483
▁ทิศตะวันตก	-11.2484
cla	-11.2484
เทป	-11.2487
โดยสาร	-11.2487
โก้	-11.249
nation	-11.2491
▁charter	-11.2491
▁เหตุ	-11.2492
▁teeth	-11.2492
มีเดีย	-11.2493
▁continuous	-11.2493
▁Miami	-11.2493
เจ้าอาวาสวัด	-11.25
▁fee	-11.2503
▁bio	-11.2504
โลกของกรีซโบราณ	-11.2505
ł	-11.2506
▁Belgium	-11.2506
ริชาร์ด	-11.2506
เพน	-11.2508
วันศุกร์	-11.2508
มาส	-11.2509
▁Benjamin	-11.2509
ทางการแพทย์	-11.2509
โมริ	-11.251
▁วัดป่า	-11.251
ที่เกิดจาก	-11.2512
▁whale	-11.2513
กุ้ง	-11.2515
เวทมนตร์	-11.2516
▁Walker	-11.2519
อวอร์ด	-11.2519
▁medium	-11.2519
▁joke	-11.252
แท่น	-11.252
▁legs	-11.252
ประภา	-11.2521
stayed	-11.2522
หลุด	-11.2523
อธิการบดี	-11.2523
เพื่อสร้าง	-11.2524
บุรีรัมย์	-11.2526
กัปตัน	-11.2528
พระราชบิดา	-11.2528
400	-11.253
▁choose	-11.253
▁Iowa	-11.253
เรียบเรียง	-11.2531
▁instrumental	-11.2531
โง	-11.2531
ปรีชา	-11.2532
▁salt	-11.2533
▁บรมนาถบพิตร	-11.2533
ัจ	-11.2535
▁stretch	-11.2535
แซม	-11.2535
taught	-11.2536
ค่ำ	-11.2536
TO	-11.2536
▁shear	-11.2537
ลูกค้า	-11.2537
Mo	-11.2537
rgued	-11.2537
▁Seattle	-11.2537
▁opponents	-11.2538
▁existed	-11.2538
lau	-11.2538
เสียชีวิตในปี	-11.2539
▁1903	-11.254
นักโบราณคดีได้	-11.2543
="3"	-11.2548
lad	-11.2549
▁territories	-11.255
▁Charlie	-11.255
▁Championships	-11.2552
โปเกมอน	-11.2553
É	-11.2553
สเป	-11.2553
คัง	-11.2554
▁flu	-11.2556
จ่า	-11.2559
ภาพที่ขาดหายไป	-11.256
▁Somerset	-11.256
พระราชินี	-11.2563
▁Napoleon	-11.2563
▁experiences	-11.2568
▁Hans	-11.2569
▁races	-11.2569
การเกิด	-11.2569
▁Ice	-11.2569
กรา	-11.257
hoped	-11.257
ลิ้น	-11.2571
รถถัง	-11.2573
แบ่งเขตการปกครอง	-11.2579
▁plain	-11.2579
ผจญภัย	-11.258
ไม่ต้อง	-11.2581
คู่แข่ง	-11.2581
▁wedding	-11.2582
โด่งดัง	-11.2583
แอฟริกาใต้	-11.2584
เรส	-11.2586
ศึกษาต่อ	-11.2586
▁Alabama	-11.2587
isolated	-11.2588
ception	-11.2588
▁handed	-11.2589
ขัง	-11.259
ข้อมูลที่	-11.2591
มีชื่อว่า	-11.2591
utter	-11.2593
ผัน	-11.2594
▁relat	-11.2595
การรบ	-11.2595
sson	-11.2596
เถิด	-11.2597
▁lock	-11.2597
▁คาร์	-11.2598
test	-11.2599
▁virus	-11.26
โระ	-11.26
▁Gil	-11.26
มีผู้เสียชีวิต	-11.2601
สามารถปะติดปะต่อ	-11.2601
▁identify	-11.2601
▁sure	-11.2601
▁creative	-11.2601
เห็นชอบ	-11.2602
อำเภอบ้าน	-11.2602
▁|0	-11.2602
ประเทศเกาหลีใต้	-11.2604
ทางวัฒนธรรม	-11.2605
▁balance	-11.2605
บี้	-11.2607
ศิษย์เก่า	-11.2608
แพง	-11.2608
post	-11.261
ฤกษ์	-11.261
แบ่งตาม	-11.2612
▁ballad	-11.2613
▁Windows	-11.2615
ashi	-11.2617
คลินิก	-11.2618
▁creature	-11.2618
▁ถึงแม้ว่า	-11.2618
▁กรุงเทพฯ	-11.2621
คุณค่า	-11.2621
▁สาร	-11.2625
ผ่านเข้ารอบ	-11.2625
ของนาย	-11.2627
▁alliance	-11.2628
▁ชั้นที่	-11.2631
▁ผู้กำกับ	-11.2631
▁Cold	-11.2631
▁pointed	-11.2631
▁Alfred	-11.2632
Sa	-11.2632
▁Eye	-11.2633
ชีววิทยา	-11.2634
▁Online	-11.2634
▁satellite	-11.2635
▁select	-11.2635
▁merg	-11.2636
▁กว้าง	-11.2637
ising	-11.2638
มีพลัง	-11.2639
▁feud	-11.2642
exposed	-11.2642
ครา	-11.2645
6"	-11.2646
▁มม	-11.2646
▁1902	-11.2646
▁picked	-11.2646
▁Base	-11.2646
รักษาการ	-11.2647
▁withdrew	-11.2649
▁drum	-11.265
กฤษ	-11.2653
▁และได้รับ	-11.2655
▁Express	-11.2655
▁เกมสำหรับ	-11.2656
ครั้งใหญ่	-11.2658
ที่ใหญ่ที่สุด	-11.2658
wise	-11.2659
ล่วง	-11.2661
▁Margaret	-11.2662
▁teammate	-11.2663
คนละ	-11.2666
อย่างหนึ่ง	-11.2666
ui	-11.2667
หม้อ	-11.2667
อภิเษกสมรส	-11.2667
▁Return	-11.2668
▁ในระหว่าง	-11.2668
ที่ทำการ	-11.2671
ที่น่า	-11.2672
โพธิ	-11.2672
▁tourist	-11.2673
เม็ด	-11.2674
▁dangerous	-11.2674
▁prime	-11.2676
Di	-11.2677
▁Confederate	-11.268
ในช่วงเวลา	-11.2681
การเรียนรู้	-11.2681
▁นักการเมือง	-11.2684
สลัก	-11.2684
เวีย	-11.2684
เซียน	-11.2685
▁ชนะคะแนน	-11.2685
pet	-11.2686
แกะ	-11.2686
▁ทิศเหนือ	-11.2687
quit	-11.2688
▁ท้าว	-11.2688
▁simultaneous	-11.269
▁วันถึงแก่กรรม	-11.2692
พ่อของ	-11.2692
จำพวก	-11.2693
คัม	-11.2694
▁คริส	-11.2694
▁cruisers	-11.2695
▁technique	-11.2695
▁priest	-11.2697
▁harm	-11.2697
ลวง	-11.2698
ื่อ	-11.2699
จักรยาน	-11.2699
▁Lost	-11.2699
อาราม	-11.2702
ได้กลายเป็น	-11.2702
iana	-11.2704
จัดงาน	-11.2704
▁import	-11.2706
ซีน	-11.2707
▁negotiations	-11.2708
▁ABC	-11.2709
▁08	-11.2711
▁curve	-11.2717
▁Kon	-11.2717
บางส่วนของ	-11.2717
lac	-11.2718
สตี	-11.272
ให้ได้	-11.272
▁representative	-11.2721
▁permission	-11.2722
ปืนใหญ่	-11.2722
▁ดยุกแห่ง	-11.2722
tron	-11.2723
itis	-11.2725
▁เช	-11.2726
▁northward	-11.2727
ได้ก้าวหน้าขึ้น	-11.2728
เพื่อการ	-11.2729
▁testing	-11.2729
▁Forces	-11.273
ริโอ	-11.2731
▁Hungary	-11.2731
ปลายปี	-11.2732
▁Jam	-11.2733
คำแนะนำ	-11.2734
▁Helen	-11.2735
▁personality	-11.2735
พันธ	-11.2737
▁Minnesota	-11.2738
▁สิริ	-11.2738
▁sat	-11.2738
สร้อย	-11.2739
▁skill	-11.2741
▁crisis	-11.2742
เสด็จสวรรคต	-11.2742
ปลอดภัย	-11.2745
กิตติมศักดิ์	-11.2748
oke	-11.275
▁indicate	-11.275
▁lowest	-11.2751
กุหลาบ	-11.2752
▁Chan	-11.2752
▁scholars	-11.2752
ผู้ชนะ	-11.2753
ground	-11.2753
lone	-11.2753
คลาสสิก	-11.2755
▁Ty	-11.2756
ประธานกรรมการ	-11.2756
ได้ส่ง	-11.2759
ที่แสดง	-11.2762
▁Type	-11.2764
▁veteran	-11.2766
จัดการแข่งขัน	-11.2766
ไลน์	-11.2768
อินทร์	-11.2769
ลวดลาย	-11.277
เถ	-11.2771
ในตัว	-11.2774
หนึ่งที่	-11.2774
shed	-11.2775
SM	-11.2776
็อต	-11.2777
การโบราณคดี	-11.2777
▁สัญลักษณ์	-11.2779
แสดงว่า	-11.2779
▁doesn	-11.278
ไมโคร	-11.2781
▁appropriate	-11.2783
▁conservative	-11.2783
▁perspective	-11.2787
▁platinum	-11.2787
▁shelter	-11.2787
ริต	-11.2787
นักเขียน	-11.2788
▁alignment	-11.2789
▁proportion	-11.279
▁Writer	-11.279
▁faith	-11.2792
รั	-11.2793
▁cannon	-11.2793
เกษตรกรรม	-11.2793
บิ๊ก	-11.2795
▁truth	-11.2798
สนามบิน	-11.2799
▁reviewers	-11.28
▁advice	-11.2801
▁Giants	-11.2801
▁supposed	-11.2801
-7	-11.2805
เกิดจากการ	-11.2805
nce	-11.2806
cell	-11.2806
จุฬา	-11.2807
pose	-11.2808
ก็ต้อง	-11.2809
▁prohibit	-11.2811
▁CO	-11.2812
ประการ	-11.2813
ไม่ดี	-11.2813
▁Friday	-11.2815
▁sees	-11.2815
▁withdraw	-11.2816
Cl	-11.2817
▁pounds	-11.2819
▁thirteen	-11.2821
อาน	-11.2822
▁เจมส์	-11.2822
▁apartment	-11.2823
▁gets	-11.2824
ครั้งสุดท้าย	-11.2825
มีความสามารถ	-11.2826
He	-11.2828
▁Metro	-11.2828
NC	-11.283
ending	-11.2832
▁whereas	-11.2832
▁collaborat	-11.2833
▁Trek	-11.2835
corn	-11.2835
▁แก้ว	-11.2836
บรรลุ	-11.2839
ยูโร	-11.2839
มีปัญหา	-11.2841
▁Met	-11.2841
โรส	-11.2842
▁Baker	-11.2843
▁Penn	-11.2843
การพิมพ์	-11.2843
▁encourage	-11.2844
▁1893	-11.2844
▁สะพาน	-11.2844
แข็งแรง	-11.2845
▁Mat	-11.2845
แรน	-11.2845
▁diet	-11.2847
rim	-11.2849
การดำเนินการ	-11.2849
▁compilation	-11.2849
▁rarely	-11.285
วิสุงคามสีมา	-11.2851
▁Flight	-11.2852
เปล่า	-11.2853
ym	-11.2853
กราบทูล	-11.2853
ตั้งอยู่บน	-11.2853
ลเลอร์	-11.2853
▁Diego	-11.2854
▁Box	-11.2856
▁maintenance	-11.2856
ของแต่ละ	-11.2857
▁landscape	-11.2857
▁รู	-11.2857
mount	-11.2858
part	-11.2858
ระหว่างวันที่	-11.2858
▁978	-11.286
▁dynasty	-11.2863
ไทม์	-11.2865
master	-11.2865
going	-11.2868
▁noble	-11.2869
▁ภู	-11.287
▁engineering	-11.2871
▁ร่าง	-11.2872
▁realize	-11.2872
▁novels	-11.2876
บัลลังก์	-11.2876
▁spending	-11.2876
โมโตะ	-11.2879
▁||1	-11.288
สนุก	-11.2881
▁|3	-11.2882
ไม่มีใคร	-11.2883
▁tale	-11.2887
▁consum	-11.2887
▁เขายัง	-11.2888
▁Victor	-11.289
นี้ว่า	-11.289
▁เปลี่ยน	-11.2891
อัญเชิญ	-11.2892
อาคารเรียน	-11.2894
ราชสกุล	-11.2894
eclipse	-11.2895
พระภิกษุ	-11.2895
คบ	-11.2896
มหาสารคาม	-11.2897
▁อนิเมะ	-11.2897
eh	-11.2899
▁Small	-11.2899
ผู้สร้าง	-11.2899
▁mainstream	-11.29
▁Monte	-11.29
เกี่ยว	-11.29
จิตร	-11.29
ในสาขา	-11.2902
ในครั้งนี้	-11.2902
เสรีภาพ	-11.2902
ที่นั่น	-11.2902
อนุมัติ	-11.2903
▁myth	-11.2903
cap	-11.2903
IM	-11.2905
โควิด	-11.2906
▁leads	-11.2907
▁fur	-11.2908
▁finale	-11.2909
รีย์	-11.2909
การตลาด	-11.2912
▁Microsoft	-11.2912
โลหิต	-11.2913
หน้ากาก	-11.2913
ND	-11.2913
นั่นเอง	-11.2915
วินโดวส์	-11.2916
▁specimens	-11.2917
ปฏิวัติ	-11.2918
เนียน	-11.2919
▁anticipat	-11.292
ลส์	-11.292
▁Stre	-11.2923
▁illegal	-11.2923
โบราณสถาน	-11.2926
▁ขับร้องโดย	-11.2927
เสี่ยง	-11.2928
uka	-11.2928
▁Fighter	-11.2928
บุรุษ	-11.293
race	-11.293
ยังสามารถ	-11.2932
▁vari	-11.2932
▁poison	-11.2934
▁signing	-11.2934
▁สุวรรณ	-11.2934
▁Prize	-11.2936
ประจำตัว	-11.2937
ตกเป็น	-11.2943
▁ตั้งแต่วันที่	-11.2944
ค้าง	-11.2944
พายุไต้ฝุ่น	-11.2944
เลา	-11.2945
▁Gray	-11.2945
ฉลาด	-11.2949
▁turrets	-11.2949
อำนวย	-11.295
▁offices	-11.295
▁วัดหนอง	-11.2951
ชาวยิว	-11.2951
▁Industry	-11.2951
ล้มเหลว	-11.2952
ของเจ้า	-11.2952
คัดค้าน	-11.2955
▁fragment	-11.2955
gie	-11.2956
▁แม้จะ	-11.2958
▁ซิงเกิล	-11.2959
นำเข้า	-11.296
▁minimum	-11.2962
ฝา	-11.2963
▁difficulties	-11.2965
č	-11.2965
ชื่นชอบ	-11.2966
▁triple	-11.2968
hl	-11.2971
alo	-11.2971
พานิช	-11.2972
▁graduat	-11.2973
leg	-11.2973
สุขาภิบาล	-11.2974
ความเข้าใจ	-11.2977
อริ	-11.2977
เรื่องราวของ	-11.2978
take	-11.2978
ปน	-11.2978
▁Kam	-11.2982
▁Snow	-11.2982
▁ver	-11.2983
▁minimal	-11.2983
มิว	-11.2984
ตัวเมีย	-11.2984
อยู่ระหว่าง	-11.2986
แม้ว่า	-11.2987
หุ่น	-11.2987
▁น้ำหนัก	-11.2989
▁suicide	-11.299
▁construct	-11.2991
อย่างหนัก	-11.2993
▁approval	-11.2994
▁เจ้าเมือง	-11.2996
▁forcing	-11.2997
▁Saturday	-11.2997
ข้าหลวง	-11.2998
เสื้อผ้า	-11.2999
▁policies	-11.3001
นิล	-11.3003
หลอก	-11.3003
▁Bro	-11.3005
▁wins	-11.3006
จำนวนไม่มาก	-11.3006
เกาหลีเหนือ	-11.3006
▁scar	-11.3008
som	-11.3009
แลง	-11.3009
▁โดยให้	-11.301
เป็นแหล่ง	-11.3012
▁Fri	-11.3012
อีสาน	-11.3014
AD	-11.3016
ในส่วน	-11.3016
num	-11.3018
เลียน	-11.3019
▁มิส	-11.3019
▁09	-11.3022
°	-11.3023
เปีย	-11.3024
▁เพ	-11.3024
▁Books	-11.3028
NO	-11.3028
ทีน	-11.303
มิก	-11.3031
▁attitude	-11.3033
ฟินแลนด์	-11.3033
ฟอร์ม	-11.3036
quo	-11.3037
▁courts	-11.3037
พระเจ้าแผ่นดิน	-11.3038
ort	-11.304
▁adjacent	-11.304
_{	-11.304
▁epi	-11.3041
▁Kal	-11.3041
ส่วนประกอบ	-11.3042
▁justice	-11.3042
nel	-11.3042
คอลัมน์	-11.3047
เป็นผล	-11.3048
ัตสึ	-11.305
stan	-11.3051
mos	-11.3051
ifying	-11.3052
▁tone	-11.3053
▁ซูเปอร์	-11.3053
นิค	-11.3054
เมอ	-11.3055
ถูกจับ	-11.3055
สงขลา	-11.3055
▁Nar	-11.3057
▁Independent	-11.3058
บูรพา	-11.3058
ภาพยนตร์ไทย	-11.3058
iti	-11.3058
▁1896	-11.3059
▁Township	-11.3059
pes	-11.306
ฮุ	-11.306
ควีน	-11.306
คลอด	-11.3063
▁blow	-11.3064
▁Social	-11.3065
▁Hunter	-11.3065
lio	-11.3065
▁Vietnamese	-11.3065
กล้วย	-11.3066
หม่อมหลวง	-11.3067
▁Rat	-11.3068
สร้างวัด	-11.3069
เหรียญรางวัล	-11.3069
iva	-11.3071
ขับไล่	-11.3072
gov	-11.3072
▁นิว	-11.3073
▁spiritual	-11.3073
โข	-11.3073
▁toll	-11.3073
ขับเคลื่อน	-11.3074
▁Franklin	-11.3075
นับตั้งแต่	-11.3075
แวร์	-11.3075
▁tune	-11.3078
เกะ	-11.3078
ตามมา	-11.308
▁USD	-11.308
sup	-11.3081
▁Sy	-11.3082
▁แกรมมี่	-11.3082
▁dock	-11.3082
ตะวันตกเฉียงใต้	-11.3083
▁neighborhood	-11.3083
นำมาใช้	-11.3085
▁definition	-11.3086
▁แสดงเป็น	-11.3087
partially	-11.3087
▁weaken	-11.3088
ไปหา	-11.3088
▁tenth	-11.3089
▁consequence	-11.309
▁Saxon	-11.309
="0"	-11.309
สอบสวน	-11.309
เป็นศูนย์กลาง	-11.3091
▁Fat	-11.3092
เรียกชื่อ	-11.3093
▁Kha	-11.3093
โธ	-11.3093
HA	-11.3098
▁350	-11.3099
▁สหรัฐ	-11.3099
ประดับหลุมศพ	-11.3101
▁comments	-11.3102
อ้อม	-11.3103
รุ่งเรือง	-11.3104
ทางศาสนา	-11.3106
แน่	-11.3106
uma	-11.3107
supporting	-11.3107
▁housing	-11.3108
ใช้สำหรับ	-11.311
ในปีค	-11.311
สมรสกับ	-11.3111
▁pitched	-11.3111
▁windows	-11.3114
▁spott	-11.3114
▁Kurt	-11.3114
ุต	-11.3114
iel	-11.3116
จำแนก	-11.3117
จม	-11.3118
▁palace	-11.3119
เป้า	-11.3123
▁เอ็น	-11.3127
สท์	-11.3127
4%	-11.3128
พรมแดน	-11.313
Ph	-11.313
▁friendly	-11.3133
CS	-11.3133
▁interpretation	-11.3134
wore	-11.3135
▁churches	-11.3136
iff	-11.3136
ทำเนียบ	-11.3137
▁Campbell	-11.3137
ได้จัด	-11.3137
อัตราการ	-11.3137
hydro	-11.3137
สีทอง	-11.314
▁eliminated	-11.3143
▁Roosevelt	-11.3144
▁wet	-11.3144
▁household	-11.3145
▁prepare	-11.3147
▁blame	-11.3147
อัป	-11.3148
ผลประโยชน์	-11.3148
สิง	-11.3148
"|1	-11.3154
โดยบริษัท	-11.3154
▁Construction	-11.3155
เธอได้	-11.3155
▁Side	-11.3155
ที่หลงเหลือมา	-11.3158
▁wound	-11.3159
ทำเป็น	-11.3159
▁alcohol	-11.316
▁ห้องเรียน	-11.3162
ดิส	-11.3163
WA	-11.3163
วัฒน	-11.3164
▁Our	-11.3164
ตส์	-11.3164
▁pole	-11.3165
▁changing	-11.3165
ที่อยู่อาศัย	-11.3168
▁วัดศรี	-11.3169
ジ	-11.3169
็กซ์	-11.317
CD	-11.3171
มหาวิหาร	-11.3171
▁covering	-11.3171
▁relationships	-11.3172
ละครเวที	-11.3172
▁hockey	-11.3173
▁wire	-11.3173
▁evil	-11.3173
ชุดที่	-11.3175
▁destroyers	-11.3176
▁exploit	-11.3176
เว้น	-11.3177
▁achievement	-11.3177
▁ในอดีต	-11.3179
ทางตะวันออก	-11.318
โลหะหรือแผ่น	-11.318
▁perceiv	-11.318
▁Say	-11.3184
▁scholar	-11.3186
imi	-11.3186
ดีขึ้น	-11.3187
พิษณุโลก	-11.3188
▁partnership	-11.3188
▁tests	-11.3189
teg	-11.319
▁โช	-11.319
▁Wolf	-11.3191
▁เอฟซี	-11.3191
ให้เห็น	-11.3191
▁grown	-11.3193
ยอดขาย	-11.3193
NG	-11.3194
ยเดชมหาราช	-11.3195
▁Member	-11.3196
▁earn	-11.3196
▁rap	-11.3197
ชนชั้น	-11.3199
5||	-11.3199
▁Works	-11.3199
▁por	-11.3199
มหาภูมิพลอดุล	-11.32
ในทุก	-11.3201
0||	-11.3201
ปิ่น	-11.3201
▁Villa	-11.3201
ทาย	-11.3202
▁Hat	-11.3202
▁fighters	-11.3204
ologi	-11.3205
ให้เกิด	-11.3209
▁อดีตสมาชิก	-11.3209
▁Mur	-11.321
ภูมิพลอดุลยเดช	-11.3211
▁funeral	-11.3212
▁เกิดวันที่	-11.3217
▁สวน	-11.3219
▁Native	-11.322
ประชาสัมพันธ์	-11.322
▁Ship	-11.3222
▁Bou	-11.3222
▁แคว้น	-11.3222
ทิวซิดิดีส	-11.3223
ิ่น	-11.3225
นี้ยัง	-11.3226
▁aware	-11.3227
ชีวิตความเป็นอยู	-11.3227
▁pp	-11.3229
ชานชาลา	-11.323
▁และจารึกบนแผ่น	-11.323
▁partly	-11.3231
ชุมนุม	-11.3232
▁Bryan	-11.3233
▁Hockey	-11.3234
รับเหรียญรางวัล	-11.3234
▁shoulder	-11.3237
▁Enterprise	-11.3238
omi	-11.3242
ลัย	-11.3242
▁แต่มี	-11.3242
ในช่วงสงคราม	-11.3243
เช่นเดียวกัน	-11.3245
▁characteristics	-11.3246
▁Graham	-11.3247
▁กรมหมื่น	-11.3247
▁truck	-11.3249
เช่นนั้น	-11.3251
▁อัลบั้มเพลง	-11.3251
▁Lion	-11.3252
cccccc	-11.3252
ชำนาญ	-11.3252
▁pursue	-11.3252
▁disrupt	-11.3252
keeping	-11.3254
สีฟ้า	-11.3254
▁beam	-11.3254
วรร	-11.3255
▁evolution	-11.3255
▁Come	-11.3257
▁bombers	-11.3258
tting	-11.3258
▁Fur	-11.3258
▁ผู้เป็น	-11.3258
▁manuscript	-11.326
▁แผ่น	-11.326
▁airline	-11.326
▁displayed	-11.3261
▁joining	-11.3265
รายการโทรทัศน์	-11.3266
elo	-11.3266
▁หม่อมราชวงศ์	-11.3267
สุพรรณ	-11.327
ซีเรีย	-11.3271
มีมติ	-11.3271
▁finance	-11.3272
▁องศา	-11.3273
สารประกอบ	-11.3273
ในปีเดียวกัน	-11.3274
กุน	-11.3275
ผู้กำกับภาพยนตร์	-11.3275
ผู้ฝึกสอน	-11.3279
▁คนสุดท้าย	-11.3279
▁abuse	-11.3282
▁elevation	-11.3285
▁organizations	-11.3287
ธรณี	-11.3288
▁attendance	-11.3289
▁Bureau	-11.3289
าธิ	-11.329
▁treaty	-11.329
โพน	-11.3291
▁Critics	-11.3291
พวกมัน	-11.3292
▁boys	-11.3293
อธิบดีกรม	-11.3296
ราชสมบัติ	-11.3296
▁Studies	-11.3296
phon	-11.3298
plo	-11.3298
▁Lau	-11.3299
▁lieutenant	-11.33
▁2510	-11.3301
2,000	-11.3302
แตกต่างกัน	-11.3302
▁disappear	-11.3303
ของสหรัฐ	-11.3303
มากนัก	-11.3303
▁ซึ่งต่อมา	-11.3303
รัชกาล	-11.3304
ใดๆ	-11.3304
▁arriving	-11.3307
สงวน	-11.3308
▁Halo	-11.331
▁scientists	-11.3313
ทวิ	-11.3313
lig	-11.3315
▁บุคคลจากจังหวัด	-11.3315
nam	-11.3315
▁protein	-11.3316
nate	-11.3317
ผลลัพธ์	-11.3318
▁danger	-11.3319
▁percentage	-11.332
เส้นเมริเดียนที่	-11.3322
zon	-11.3322
▁formula	-11.3322
ต้องมี	-11.3323
▁ที่นั่ง	-11.3324
▁unlike	-11.3325
▁chase	-11.3327
bot	-11.3328
▁Ir	-11.3328
คาถา	-11.333
▁seats	-11.3332
▁Kansas	-11.3333
▁resemble	-11.3336
ุ่ม	-11.3339
▁Got	-11.3339
lag	-11.3339
▁dive	-11.334
▁trend	-11.334
▁รวมไปถึง	-11.3341
▁Blo	-11.3342
แหล่งมรดกโลก	-11.3344
▁2475	-11.3345
สภานิติบัญญัติ	-11.3346
รามคำแหง	-11.3347
บอน	-11.3348
นักบิน	-11.3351
▁telling	-11.3353
เป็นจำนวน	-11.3354
▁Cer	-11.3355
osis	-11.3356
ุน	-11.3356
ี้ยน	-11.3356
olo	-11.3357
ในบรรดา	-11.336
▁Universal	-11.3362
ทางทิศตะวันออก	-11.3362
tropical	-11.3363
▁suppli	-11.3363
▁elsewhere	-11.3366
โดร	-11.3367
สมาชิกของ	-11.3367
พาร์	-11.3367
▁มู	-11.3368
มีพื้นที่	-11.3368
ซือ	-11.3371
ขึ้นใหม่	-11.3372
▁Tennessee	-11.3373
บัส	-11.3374
▁operational	-11.338
▁Collection	-11.338
รอบคัดเลือก	-11.3381
▁entertainment	-11.3382
เสถียร	-11.3382
ภาคต่อ	-11.3384
▁และส่วนใหญ่ก็	-11.3384
lies	-11.3385
ถั่ว	-11.3385
▁Stein	-11.3385
การพิจารณา	-11.3385
อ้วน	-11.3386
een	-11.3386
pher	-11.3386
ละลาย	-11.3388
200	-11.339
▁Fun	-11.3392
▁stick	-11.3393
SD	-11.3393
▁และสามารถ	-11.3394
พุ่ง	-11.3395
▁115	-11.3395
▁cartoon	-11.3395
รางวัลออสการ์	-11.3396
▁bay	-11.3398
▁intensifi	-11.3399
▁aggressive	-11.3399
▁concrete	-11.3399
▁neutral	-11.3399
▁seeking	-11.3399
▁VII	-11.34
ลู่	-11.3401
▁victories	-11.3403
พรรคไทยรักไทย	-11.3403
▁Pra	-11.3404
▁เป็นเมือง	-11.3404
ประทาน	-11.3407
โซ่	-11.3407
รัฐมนตรีช่วยว่าก	-11.3407
PC	-11.3407
▁mate	-11.3409
มาร์ค	-11.341
เป็นปลา	-11.3411
ump	-11.3412
ปริญญาตรี	-11.3413
▁sixteen	-11.3416
▁Ap	-11.3417
เวสต์	-11.3418
ในสหราชอาณาจักร	-11.3418
ป์	-11.342
atic	-11.342
ของฝรั่งเศส	-11.342
ได้รับการยอมรับ	-11.3421
▁1898	-11.3422
▁Ever	-11.3422
▁Cop	-11.3423
ID	-11.3424
ความดัน	-11.3424
▁revolution	-11.3424
ที่ชื่อ	-11.3424
▁Sony	-11.3425
▁Manhattan	-11.3425
▁absorb	-11.3425
▁Peace	-11.3426
▁brick	-11.3427
กองทหาร	-11.3428
▁virtual	-11.3428
ผู้ว่าการ	-11.3429
ลาออกจาก	-11.3429
ชาวกรีก	-11.343
แพท	-11.3431
ทซ์	-11.3433
▁Liberal	-11.3433
ในชีวิต	-11.3434
เนตร	-11.3436
วันจันทร์	-11.3436
เอ็ด	-11.3436
ัวร์	-11.3437
▁Bun	-11.3439
สมาชิกสภา	-11.3439
▁กรมพระ	-11.344
ผิดปกติ	-11.344
นักวิจัย	-11.344
▁bridges	-11.3441
สำนักงานใหญ่	-11.3443
▁divorce	-11.3443
▁marry	-11.3446
นอกเหนือจาก	-11.3447
▁dollars	-11.3448
สะกด	-11.3452
▁Hil	-11.3453
▁True	-11.3454
รอบแรก	-11.3456
นาวา	-11.3456
▁Qui	-11.3456
▁audition	-11.3458
born	-11.3458
ES	-11.3458
▁สมเด็จพระราชินี	-11.3459
formed	-11.3459
ส่วนใหญ่เป็น	-11.3462
แหวน	-11.3463
▁falls	-11.3467
นายก	-11.3467
▁instruction	-11.3468
▁preserved	-11.3468
การปฏิรูป	-11.3468
▁variant	-11.3469
ไลท์	-11.3469
เป็นเพียง	-11.3472
US	-11.3474
คาดว่า	-11.3475
แกง	-11.3476
และวัฒนธรรม	-11.3476
▁influences	-11.3477
▁pool	-11.3477
▁Der	-11.3479
▁rates	-11.3483
อักษรแบบ	-11.3486
▁Ob	-11.3486
ตกทอดมาถึงเรา	-11.3488
เอเชียนเกมส์	-11.3488
▁Sullivan	-11.3491
▁แฮ	-11.3493
▁240	-11.3495
หลีกเลี่ยง	-11.3495
▁Rich	-11.3496
คำถาม	-11.3498
▁understanding	-11.3498
tag	-11.3499
▁def	-11.3499
ห่วง	-11.35
▁Kill	-11.35
โตร	-11.3501
went	-11.3501
ในเอกสาร	-11.3502
▁Beck	-11.3503
การคำนวณ	-11.3504
เดียวกันกับ	-11.3505
▁Interstate	-11.3507
▁paintings	-11.3508
▁Blues	-11.3509
▁Mol	-11.3509
▁Finn	-11.351
▁phrase	-11.351
▁moments	-11.3512
ปฏิทิน	-11.3512
▁เจ้าของ	-11.3513
พู	-11.3514
ร่วมสมัย	-11.3514
No	-11.3517
่สมัยนั้น	-11.3518
▁Mississippi	-11.3518
▁Warren	-11.3518
ogen	-11.3519
form	-11.3521
ภูมิอากาศ	-11.3525
วาดภาพ	-11.3526
▁fishing	-11.3526
1-2	-11.3527
▁competed	-11.3529
▁Shakespeare	-11.3529
▁helicopter	-11.3529
ศาสตราจารย์	-11.3529
▁แต่ว่า	-11.353
สปอร์ต	-11.3531
▁opponent	-11.3531
▁concerts	-11.3531
ago	-11.3531
ดัล	-11.3531
ยิว	-11.3531
▁Serb	-11.3533
พระอนุชา	-11.3533
}{	-11.3534
▁พงษ์	-11.3534
▁export	-11.3535
พระราม	-11.3536
▁portrait	-11.3536
หลวงปู่	-11.354
▁Philippines	-11.354
มวยไทย	-11.354
rink	-11.3541
นิง	-11.3543
ชั้นสูง	-11.3543
▁2489	-11.3544
▁helping	-11.3544
▁Bir	-11.3547
ตรงกลาง	-11.3548
dict	-11.3551
phi	-11.3552
เล่าปี่	-11.3552
▁Rio	-11.3553
▁resid	-11.3554
ภิ	-11.3555
▁Mitchell	-11.3555
▁bypass	-11.3556
ฟิลิป	-11.3556
โรม	-11.3557
อิสริยาภรณ์	-11.3557
▁1860	-11.3557
EA	-11.3558
▁accurate	-11.3559
▁impossible	-11.3559
▁Kirk	-11.3559
▁เหรียญทอง	-11.356
▁westward	-11.356
▁occasions	-11.3561
กลายมาเป็น	-11.3562
▁ชนิดกีฬา	-11.3562
ander	-11.3562
ears	-11.3563
▁prop	-11.3567
▁gang	-11.3568
▁Fin	-11.3569
ชิงชนะเลิศ	-11.3569
พ่อแม่	-11.357
▁ด้วยการ	-11.3571
bie	-11.3571
การรวม	-11.3571
แก่น	-11.3573
▁sculpture	-11.3574
▁Mak	-11.3576
โรเบิร์ต	-11.3578
ครั้งแรกในปี	-11.3579
ในช่วงต้น	-11.3579
▁Portland	-11.3579
▁Oak	-11.3581
▁Gene	-11.3581
▁agricultural	-11.3581
▁oxygen	-11.3581
▁investment	-11.3582
▁Kir	-11.3582
๐๐	-11.3582
โกลด์	-11.3585
▁Classic	-11.3586
พลา	-11.3587
lop	-11.3589
▁Chamber	-11.359
ต้าน	-11.359
ศาสน	-11.3592
ฮิโร	-11.3592
▁Hills	-11.3592
▁serial	-11.3594
▁McCa	-11.3594
▁regain	-11.3594
ประเทศอินเดีย	-11.3595
ไส้	-11.3595
ส่วนของ	-11.3596
▁plus	-11.3598
มีสมาชิก	-11.3598
▁god	-11.3602
▁context	-11.3603
▁Billy	-11.3603
ก่อนที่	-11.3605
▁Pin	-11.3605
▁guy	-11.3611
▁Natural	-11.3612
เนื้อเยื่อ	-11.3613
▁survivors	-11.3613
▁Historic	-11.3614
CF	-11.3614
rina	-11.3615
บรรยากาศ	-11.3616
▁expand	-11.3616
งก์	-11.3616
pha	-11.3617
▁convert	-11.3618
▁ไมเคิล	-11.3619
อิเล็กตรอน	-11.3619
ขโมย	-11.3619
อาชญากรรม	-11.3619
การวิเคราะห์	-11.3619
จิก	-11.3621
ติดต่อกับ	-11.3621
▁Boys	-11.3623
stat	-11.3623
เพลย์สเตชัน	-11.3623
▁abilities	-11.3623
▁horror	-11.3623
▁Stan	-11.3624
สตัน	-11.3624
▁situat	-11.3624
เขตเลือกตั้ง	-11.3624
core	-11.3625
▁celebrat	-11.3629
▁Merc	-11.3629
อำเภอบาง	-11.3629
▁วิทยาเขต	-11.3629
▁mini	-11.363
idi	-11.3631
▁Ward	-11.3631
▁Unit	-11.3633
▁switch	-11.3634
▁TNA	-11.3635
▁Eli	-11.3635
CH	-11.3636
ตั้งถิ่นฐาน	-11.3638
▁values	-11.3639
▁willing	-11.3639
ทางทิศตะวันตก	-11.364
non	-11.364
เอนเตอร์เทนเมนต์	-11.3642
▁dense	-11.3642
▁battles	-11.3643
ถานเอกอัครราชทูต	-11.3643
คลี	-11.3644
ท่อน	-11.3644
มีเนื้อที่	-11.3644
ฉะนั้น	-11.3648
▁บางครั้ง	-11.3648
ัณฑ	-11.3648
คัส	-11.3648
โร่	-11.3649
ô	-11.3649
ความทรงจำ	-11.3649
▁Ky	-11.3651
▁imperial	-11.3653
osaur	-11.3654
▁prospect	-11.3654
ในการสร้าง	-11.3655
▁เป็นวัดราษฎร์	-11.3657
▁Eagle	-11.3657
▁Mother	-11.3659
สิงโต	-11.366
▁cal	-11.366
อารยธรรม	-11.3661
▁ไฮ	-11.3661
ซีซั่น	-11.3665
▁Harvey	-11.3665
▁submitted	-11.3665
▁communist	-11.3666
2.5	-11.3668
อ้าย	-11.3668
▁educat	-11.3669
ที่เรา	-11.3669
พยัญชนะ	-11.3672
ของกองทัพ	-11.3672
ล้านดอลลาร์สหรัฐ	-11.3673
ได้แสดง	-11.3675
▁behalf	-11.3676
chin	-11.3676
ตอง	-11.3676
พากัน	-11.3676
shin	-11.3677
คนใหม่	-11.3679
▁บันทึกหลักฐาน	-11.368
นำไปสู่การ	-11.3682
ไอดอล	-11.3682
นิสิต	-11.3682
ทิเบต	-11.3684
พวง	-11.3684
▁แพ้	-11.3685
สงสัย	-11.3686
atory	-11.3687
▁bombing	-11.3687
ทางวิทยาศาสตร์	-11.3687
view	-11.3687
พี่สาว	-11.3688
▁newspapers	-11.3689
oul	-11.3689
▁ในกรณีที่	-11.3689
vy	-11.3693
erg	-11.3698
Ra	-11.3699
▁พร	-11.3699
ในวงการ	-11.37
นิสัย	-11.3702
▁armament	-11.3703
▁Missouri	-11.3703
iac	-11.3705
คัล	-11.3707
ให้เขา	-11.3709
กมล	-11.3709
ที่นี่	-11.371
OP	-11.3712
gold	-11.3717
▁Rub	-11.3717
มาสเตอร์	-11.3722
เทีย	-11.3723
▁Magic	-11.3724
▁Barb	-11.3724
大	-11.3726
ชีว	-11.3726
▁sample	-11.3727
แพร่หลาย	-11.3728
▁Model	-11.3729
▁interesting	-11.3729
▁Mix	-11.3731
▁distinctive	-11.3732
▁โนะ	-11.3732
▁assisted	-11.3732
▁publicly	-11.3733
บัลแกเรีย	-11.3733
สายตา	-11.3734
ffb	-11.3734
vor	-11.3734
ฉบับที่	-11.3735
ในบท	-11.3735
ฒ	-11.3736
แห่งชาติยุโรป	-11.3737
▁citing	-11.3737
ภาคกลาง	-11.3737
กุมาร	-11.3737
ซิก	-11.3739
ท่านได้	-11.3741
▁vol	-11.3741
▁purposes	-11.3741
▁Never	-11.3742
ไอโอ	-11.3743
ซัม	-11.3743
กางเขน	-11.3744
▁"1"	-11.3747
อมร	-11.3747
▁Ferr	-11.3748
▁Convention	-11.3748
เกิดเหตุ	-11.375
▁cargo	-11.375
▁Motion	-11.3751
ส่วนราชการ	-11.3751
▁earthquake	-11.3752
▁Drama	-11.3752
มองว่า	-11.3753
เป็นจุด	-11.3754
iness	-11.3756
เร็	-11.3756
พลเอก	-11.3761
▁closing	-11.3762
▁มาเป็น	-11.3763
ออล	-11.3763
rist	-11.3764
จอร์จ	-11.3764
▁tomb	-11.3767
-9	-11.3767
สำนักงานคณะกรรม	-11.3768
นรก	-11.3768
▁เพชร	-11.3768
มลายู	-11.3768
▁businesses	-11.377
▁fla	-11.3771
เซิน	-11.3774
▁govern	-11.3775
โป่ง	-11.3775
To	-11.3775
▁investigate	-11.3775
ฟิล	-11.3777
เอม	-11.3779
ระดับชั้น	-11.378
▁Slav	-11.3781
นี้ตกทอดมาจาก	-11.3783
8||	-11.3786
▁eat	-11.3787
พระราชกฤษฎีกา	-11.3788
ไซด์	-11.3788
ชนก	-11.3789
นัล	-11.379
▁ammunition	-11.379
▁skull	-11.379
Mi	-11.3792
▁รุ่นที่	-11.3792
▁Devil	-11.3793
▁Grey	-11.3793
▁Champion	-11.3794
▁restoration	-11.3794
▁basin	-11.3797
oni	-11.3797
อิฐ	-11.3798
hawk	-11.3801
▁goods	-11.3801
▁covers	-11.3801
oi	-11.3801
เผชิญ	-11.3802
7||	-11.3802
worn	-11.3803
ก็ทรง	-11.3803
▁sank	-11.3806
▁execution	-11.3807
▁moon	-11.3807
ลอบ	-11.3807
gl	-11.3808
ยังไม่มี	-11.3808
▁Tal	-11.3811
▁Lock	-11.3812
▁Johnny	-11.3812
ครั้งหนึ่ง	-11.3815
▁illness	-11.3815
▁UEFA	-11.3817
▁scatter	-11.3817
▁ผู้ชนะ	-11.3818
smith	-11.3818
ยุทธศาสตร์	-11.3819
▁1899	-11.382
sburg	-11.382
▁coup	-11.3821
แห่งแรก	-11.3821
▁documents	-11.3822
นิช	-11.3822
oto	-11.3823
มาได้	-11.3827
เตียว	-11.3827
▁worship	-11.3829
ออกอากาศทาง	-11.3829
▁underground	-11.3832
แม่ของ	-11.3833
แลก	-11.3834
▁pup	-11.3834
เปร	-11.3834
▁Labour	-11.3837
Pro	-11.3838
จด	-11.3839
▁degrees	-11.3839
ความรับผิดชอบ	-11.384
▁warn	-11.384
▁celebration	-11.3841
▁Arch	-11.3841
▁bid	-11.3843
▁หอ	-11.3844
▁Louisiana	-11.3845
▁Voice	-11.3846
▁queen	-11.3846
ุ้ย	-11.3847
▁Az	-11.3848
เพโลพอนนีเซียน	-11.3848
▁Montreal	-11.3848
ปรับเปลี่ยน	-11.3852
ชมพู	-11.3852
เกียร์	-11.3853
ความไม่	-11.3855
หลักฐานลายลักษณ์	-11.3855
cid	-11.3856
▁Glen	-11.3857
หัวหน้าพรรค	-11.3859
ฉุกเฉิน	-11.386
▁candidates	-11.3861
▁web	-11.3861
เป็นสมาชิกของ	-11.3862
เป็นอย่างดี	-11.3862
หลายปี	-11.3862
ของศิลปะ	-11.3864
▁Eve	-11.3865
เกิล	-11.3867
ล่อ	-11.3867
|||	-11.3867
มีรูป	-11.3868
สุรินทร์	-11.3869
ปุ่ม	-11.387
▁fourteen	-11.3871
ร่วมมือกับ	-11.3872
▁Leon	-11.3872
▁nations	-11.3873
▁Record	-11.3873
แผนภูมิ	-11.3874
บวร	-11.3875
▁อุปกรณ์	-11.3878
มหาวิทยาลัยมหิดล	-11.3878
restricted	-11.3881
▁นักแสดงหญิงชาว	-11.3882
พระตำหนัก	-11.3882
▁Sai	-11.3882
asa	-11.3882
มาให้	-11.3883
▁voiced	-11.3885
▁2511	-11.3886
▁Bernard	-11.3888
▁Officer	-11.3889
▁เธอได้	-11.3889
อาเซียน	-11.3889
งดงาม	-11.3891
วงการบันเทิง	-11.3891
▁Calc	-11.3891
▁หลวงพ่อ	-11.3893
บุตรสาว	-11.3893
บาย	-11.3894
สังฆ	-11.3897
▁villages	-11.3899
▁Math	-11.3901
คำศัพท์	-11.3902
ท้องฟ้า	-11.3905
ชาวเกาหลีใต้	-11.391
ブ	-11.391
ธ์	-11.3912
บีบ	-11.3913
▁sing	-11.3913
▁upgrad	-11.3915
เมตตา	-11.3916
CW	-11.3916
นง	-11.3917
พรรคชาติไทย	-11.3917
ฉะเชิงเทรา	-11.3918
▁Writing	-11.3918
ลงทุน	-11.392
▁Tamil	-11.392
เป็นส่วน	-11.3923
▁Barry	-11.3923
บาร์เซโลนา	-11.3926
▁Jonathan	-11.3926
[...]
